#ifndef MODEL_TFLITE_H
#define MODEL_TFLITE_H

const unsigned char model_tflite[] = {
28, 0, 0, 0, 84, 70, 76, 51, 20, 0, 32, 0, 28, 0, 24, 0, 20, 0, 16, 0, 12, 0, 0, 0, 8, 0, 4, 0, 20, 0, 0, 0, 28, 0, 0, 0, 140, 0, 0, 0, 228, 0, 0, 0, 108, 41, 11, 0, 124, 41, 11, 0, 0, 61, 11, 0, 3, 0, 0, 0, 1, 0, 0, 0, 4, 0, 0, 0, 198, 210, 244, 255, 12, 0, 0, 0, 28, 0, 0, 0, 60, 0, 0, 0, 15, 0, 0, 0, 115, 101, 114, 118, 105, 110, 103, 95, 100, 101, 102, 97, 117, 108, 116, 0, 1, 0, 0, 0, 4, 0, 0, 0, 144, 255, 255, 255, 36, 0, 0, 0, 4, 0, 0, 0, 8, 0, 0, 0, 111, 117, 116, 112, 117, 116, 95, 48, 0, 0, 0, 0, 1, 0, 0, 0, 4, 0, 0, 0, 130, 213, 244, 255, 4, 0, 0, 0, 12, 0, 0, 0, 107, 101, 114, 97, 115, 95, 116, 101, 110, 115, 111, 114, 0, 0, 0, 0, 2, 0, 0, 0, 52, 0, 0, 0, 4, 0, 0, 0, 220, 255, 255, 255, 39, 0, 0, 0, 4, 0, 0, 0, 19, 0, 0, 0, 67, 79, 78, 86, 69, 82, 83, 73, 79, 78, 95, 77, 69, 84, 65, 68, 65, 84, 65, 0, 8, 0, 12, 0, 8, 0, 4, 0, 8, 0, 0, 0, 38, 0, 0, 0, 4, 0, 0, 0, 19, 0, 0, 0, 109, 105, 110, 95, 114, 117, 110, 116, 105, 109, 101, 95, 118, 101, 114, 115, 105, 111, 110, 0, 40, 0, 0, 0, 132, 40, 11, 0, 124, 40, 11, 0, 108, 39, 11, 0, 220, 38, 11, 0, 192, 38, 11, 0, 164, 38, 11, 0, 136, 38, 11, 0, 108, 38, 11, 0, 92, 198, 10, 0, 204, 196, 10, 0, 188, 194, 10, 0, 172, 2, 0, 0, 156, 1, 0, 0, 132, 1, 0, 0, 112, 1, 0, 0, 104, 1, 0, 0, 84, 1, 0, 0, 64, 1, 0, 0, 44, 1, 0, 0, 36, 1, 0, 0, 28, 1, 0, 0, 20, 1, 0, 0, 12, 1, 0, 0, 4, 1, 0, 0, 252, 0, 0, 0, 244, 0, 0, 0, 236, 0, 0, 0, 228, 0, 0, 0, 220, 0, 0, 0, 212, 0, 0, 0, 204, 0, 0, 0, 196, 0, 0, 0, 188, 0, 0, 0, 180, 0, 0, 0, 172, 0, 0, 0, 164, 0, 0, 0, 156, 0, 0, 0, 148, 0, 0, 0, 116, 0, 0, 0, 4, 0, 0, 0, 158, 214, 244, 255, 4, 0, 0, 0, 96, 0, 0, 0, 16, 0, 0, 0, 0, 0, 0, 0, 8, 0, 14, 0, 8, 0, 4, 0, 8, 0, 0, 0, 16, 0, 0, 0, 36, 0, 0, 0, 0, 0, 6, 0, 8, 0, 4, 0, 6, 0, 0, 0, 4, 0, 0, 0, 0, 0, 0, 0, 12, 0, 24, 0, 20, 0, 16, 0, 12, 0, 4, 0, 12, 0, 0, 0, 213, 130, 102, 105, 48, 165, 45, 47, 2, 0, 0, 0, 2, 0, 0, 0, 4, 0, 0, 0, 6, 0, 0, 0, 50, 46, 49, 57, 46, 48, 0, 0, 10, 215, 244, 255, 4, 0, 0, 0, 16, 0, 0, 0, 49, 46, 49, 49, 46, 48, 0, 0, 0, 0, 0, 0, 0, 0, 0, 0, 64, 197, 244, 255, 68, 197, 244, 255, 72, 197, 244, 255, 76, 197, 244, 255, 80, 197, 244, 255, 84, 197, 244, 255, 88, 197, 244, 255, 92, 197, 244, 255, 96, 197, 244, 255, 100, 197, 244, 255, 104, 197, 244, 255, 108, 197, 244, 255, 112, 197, 244, 255, 116, 197, 244, 255, 120, 197, 244, 255, 124, 197, 244, 255, 128, 197, 244, 255, 132, 197, 244, 255, 136, 197, 244, 255, 114, 215, 244, 255, 4, 0, 0, 0, 4, 0, 0, 0, 253, 255, 255, 255, 130, 215, 244, 255, 4, 0, 0, 0, 4, 0, 0, 0, 192, 10, 0, 0, 146, 215, 244, 255, 4, 0, 0, 0, 4, 0, 0, 0, 0, 0, 0, 0, 188, 197, 244, 255, 166, 215, 244, 255, 4, 0, 0, 0, 4, 0, 0, 0, 1, 0, 0, 0, 182, 215, 244, 255, 4, 0, 0, 0, 8, 0, 0, 0, 242, 82, 4, 64, 48, 83, 4, 192, 202, 215, 244, 255, 4, 0, 0, 0, 0, 1, 0, 0, 150, 193, 77, 190, 59, 63, 15, 62, 16, 115, 17, 190, 33, 142, 147, 190, 44, 102, 75, 188, 125, 29, 173, 188, 32, 89, 21, 62, 53, 55, 248, 189, 143, 87, 100, 190, 155, 184, 207, 189, 223, 116, 113, 191, 137, 143, 52, 191, 241, 127, 29, 190, 69, 243, 82, 191, 45, 13, 75, 190, 178, 245, 65, 188, 87, 32, 173, 61, 193, 145, 113, 190, 252, 21, 12, 190, 62, 204, 143, 190, 178, 23, 171, 189, 88, 195, 8, 62, 113, 63, 169, 190, 81, 70, 72, 190, 126, 169, 129, 190, 184, 224, 80, 189, 157, 35, 186, 61, 160, 49, 208, 190, 109, 40, 75, 191, 227, 213, 228, 189, 167, 8, 126, 62, 114, 199, 193, 190, 49, 183, 21, 190, 60, 54, 92, 62, 51, 169, 15, 191, 108, 126, 55, 62, 150, 93, 127, 190, 74, 34, 117, 189, 137, 0, 221, 190, 162, 238, 7, 191, 235, 185, 165, 61, 235, 157, 46, 191, 151, 184, 150, 60, 178, 217, 4, 189, 241, 178, 37, 191, 235, 39, 3, 189, 107, 174, 117, 190, 158, 118, 207, 190, 151, 103, 189, 189, 67, 144, 208, 61, 227, 24, 245, 189, 31, 174, 172, 188, 11, 157, 128, 61, 16, 120, 241, 61, 216, 3, 149, 190, 246, 44, 34, 189, 193, 197, 119, 190, 22, 42, 145, 190, 44, 91, 140, 191, 195, 113, 39, 62, 12, 90, 124, 61, 205, 26, 205, 190, 200, 165, 164, 188, 150, 7, 34, 188, 214, 216, 244, 255, 4, 0, 0, 0, 0, 192, 10, 0, 23, 40, 231, 61, 133, 86, 49, 63, 165, 19, 169, 188, 168, 222, 131, 61, 193, 97, 178, 61, 251, 48, 78, 188, 91, 128, 81, 190, 19, 130, 69, 61, 71, 184, 101, 62, 79, 31, 219, 190, 3, 66, 140, 189, 206, 245, 165, 62, 201, 68, 201, 63, 177, 227, 15, 189, 4, 238, 3, 63, 255, 223, 15, 186, 183, 78, 26, 190, 167, 90, 227, 62, 204, 131, 5, 191, 26, 96, 188, 61, 216, 120, 92, 190, 84, 172, 90, 63, 202, 68, 56, 189, 71, 232, 91, 191, 23, 165, 151, 62, 239, 160, 26, 63, 54, 26, 213, 190, 123, 161, 213, 62, 5, 66, 220, 62, 122, 155, 46, 63, 230, 53, 34, 63, 31, 235, 127, 62, 97, 204, 128, 61, 150, 159, 209, 62, 107, 217, 144, 189, 118, 3, 207, 189, 159, 8, 72, 60, 52, 213, 54, 62, 126, 127, 117, 188, 176, 157, 24, 63, 51, 88, 45, 63, 7, 166, 247, 62, 9, 213, 97, 61, 23, 93, 19, 61, 232, 117, 159, 62, 3, 18, 74, 62, 114, 61, 79, 188, 190, 208, 44, 63, 208, 197, 70, 63, 142, 86, 239, 190, 211, 16, 10, 63, 58, 40, 196, 60, 55, 155, 57, 63, 95, 160, 167, 188, 176, 171, 61, 60, 204, 98, 147, 61, 192, 8, 132, 61, 134, 5, 184, 61, 48, 223, 173, 189, 92, 250, 223, 190, 92, 108, 138, 63, 201, 31, 138, 62, 79, 0, 153, 190, 76, 87, 147, 62, 67, 55, 160, 61, 162, 48, 151, 62, 234, 136, 140, 188, 166, 179, 216, 190, 228, 220, 15, 63, 17, 207, 71, 187, 84, 106, 200, 189, 148, 183, 168, 61, 26, 58, 165, 190, 139, 188, 173, 190, 195, 32, 180, 189, 164, 239, 43, 62, 103, 232, 142, 63, 212, 145, 19, 63, 15, 213, 241, 62, 236, 189, 47, 189, 78, 75, 95, 190, 114, 112, 65, 62, 233, 126, 216, 62, 2, 166, 174, 62, 75, 43, 1, 191, 236, 131, 142, 62, 45, 58, 40, 189, 163, 221, 134, 62, 220, 54, 158, 62, 56, 108, 219, 62, 138, 206, 134, 190, 41, 221, 17, 190, 217, 131, 174, 62, 72, 88, 140, 63, 35, 138, 135, 62, 140, 30, 12, 62, 107, 4, 233, 61, 75, 98, 146, 190, 204, 65, 126, 189, 58, 181, 150, 58, 179, 193, 192, 59, 25, 143, 250, 61, 201, 68, 175, 188, 55, 125, 57, 63, 52, 252, 28, 190, 83, 70, 38, 191, 134, 22, 122, 60, 157, 148, 20, 61, 113, 126, 177, 61, 68, 111, 68, 189, 132, 105, 130, 188, 1, 239, 52, 62, 230, 159, 26, 63, 195, 117, 160, 190, 66, 120, 55, 190, 149, 206, 73, 62, 43, 81, 28, 190, 233, 40, 234, 62, 36, 4, 22, 61, 105, 17, 113, 61, 125, 63, 51, 61, 125, 75, 233, 61, 220, 130, 197, 188, 148, 144, 34, 190, 22, 162, 78, 63, 29, 53, 24, 188, 231, 166, 62, 190, 197, 132, 5, 63, 151, 245, 194, 61, 97, 64, 83, 62, 95, 71, 3, 189, 177, 3, 65, 191, 99, 253, 27, 63, 4, 112, 138, 60, 113, 249, 56, 190, 252, 6, 225, 60, 126, 34, 223, 190, 148, 14, 72, 190, 204, 178, 118, 189, 32, 13, 61, 61, 8, 214, 73, 63, 236, 4, 102, 63, 34, 181, 103, 59, 255, 35, 201, 60, 131, 66, 223, 190, 84, 110, 122, 61, 101, 100, 153, 62, 73, 231, 102, 62, 67, 109, 91, 191, 226, 104, 3, 191, 230, 85, 39, 60, 95, 124, 12, 191, 156, 214, 109, 188, 183, 232, 89, 62, 9, 197, 73, 190, 50, 128, 77, 62, 236, 147, 91, 62, 61, 25, 38, 62, 141, 222, 129, 62, 146, 101, 143, 61, 59, 19, 13, 62, 51, 200, 87, 191, 107, 63, 191, 58, 254, 223, 153, 188, 43, 30, 211, 60, 251, 120, 236, 61, 0, 177, 58, 61, 83, 239, 126, 63, 2, 93, 158, 62, 228, 192, 62, 63, 212, 155, 80, 61, 251, 59, 73, 61, 77, 79, 145, 189, 212, 78, 191, 190, 211, 160, 132, 61, 221, 11, 108, 62, 242, 220, 136, 63, 55, 250, 31, 191, 111, 21, 133, 191, 148, 73, 184, 62, 198, 5, 130, 191, 39, 240, 78, 63, 127, 103, 5, 189, 14, 246, 175, 61, 245, 179, 147, 61, 83, 188, 19, 188, 228, 235, 49, 189, 63, 197, 10, 190, 17, 128, 25, 62, 76, 135, 37, 190, 235, 207, 171, 190, 161, 196, 170, 189, 191, 63, 129, 189, 243, 22, 45, 190, 35, 151, 156, 57, 39, 126, 8, 191, 36, 242, 193, 189, 5, 110, 148, 187, 142, 62, 139, 190, 109, 19, 169, 60, 210, 251, 181, 190, 244, 222, 34, 190, 66, 103, 197, 188, 240, 226, 141, 62, 90, 166, 74, 190, 13, 207, 155, 62, 98, 27, 1, 191, 10, 69, 72, 60, 93, 34, 3, 190, 199, 188, 235, 190, 54, 72, 198, 62, 201, 75, 142, 190, 149, 36, 102, 61, 200, 75, 152, 63, 236, 45, 234, 188, 85, 211, 185, 190, 38, 176, 8, 191, 17, 73, 66, 191, 164, 68, 21, 62, 240, 147, 2, 63, 117, 19, 34, 189, 76, 60, 23, 62, 191, 88, 53, 62, 192, 141, 135, 61, 167, 216, 46, 61, 82, 23, 108, 190, 172, 152, 66, 59, 8, 218, 139, 61, 246, 102, 51, 188, 7, 208, 220, 62, 190, 57, 249, 60, 29, 194, 87, 63, 41, 134, 134, 62, 160, 70, 4, 63, 194, 106, 16, 59, 96, 231, 57, 189, 138, 138, 216, 190, 93, 254, 0, 190, 25, 216, 144, 61, 220, 53, 5, 191, 122, 163, 71, 62, 127, 20, 8, 191, 51, 116, 19, 191, 110, 223, 41, 63, 193, 199, 82, 191, 229, 106, 64, 62, 58, 98, 88, 61, 189, 228, 122, 61, 209, 67, 188, 61, 6, 51, 7, 61, 71, 71, 0, 189, 113, 102, 197, 189, 133, 172, 255, 61, 161, 25, 238, 62, 94, 52, 170, 190, 141, 40, 248, 189, 196, 76, 133, 60, 147, 6, 203, 62, 99, 69, 25, 189, 206, 188, 75, 62, 158, 18, 135, 189, 99, 179, 174, 60, 18, 52, 99, 190, 22, 117, 139, 60, 196, 75, 4, 59, 186, 150, 140, 190, 123, 135, 191, 190, 11, 30, 11, 63, 14, 100, 22, 190, 72, 39, 13, 62, 67, 130, 31, 191, 98, 243, 161, 188, 157, 174, 143, 62, 183, 234, 170, 190, 85, 218, 155, 190, 212, 192, 52, 191, 72, 155, 24, 62, 157, 188, 2, 63, 28, 100, 213, 188, 30, 55, 77, 189, 226, 57, 63, 190, 99, 89, 227, 189, 70, 141, 134, 62, 148, 97, 250, 61, 84, 130, 212, 190, 99, 127, 70, 191, 115, 139, 155, 190, 184, 184, 216, 61, 46, 82, 54, 61, 135, 151, 134, 60, 81, 233, 180, 187, 145, 165, 8, 61, 204, 23, 202, 60, 170, 158, 238, 62, 68, 217, 81, 61, 163, 56, 196, 62, 173, 88, 142, 62, 201, 149, 243, 190, 228, 34, 142, 188, 21, 243, 216, 60, 89, 211, 234, 189, 215, 106, 79, 189, 155, 118, 89, 61, 222, 236, 200, 62, 251, 236, 45, 63, 181, 75, 48, 60, 141, 149, 249, 190, 180, 16, 37, 62, 2, 8, 160, 188, 47, 96, 137, 62, 224, 135, 55, 61, 5, 212, 167, 61, 241, 34, 32, 61, 44, 65, 66, 61, 54, 198, 183, 189, 82, 123, 53, 190, 152, 142, 149, 191, 102, 174, 129, 62, 206, 180, 135, 190, 62, 42, 171, 62, 70, 47, 173, 58, 43, 28, 0, 191, 227, 140, 202, 188, 238, 39, 179, 62, 108, 145, 107, 190, 203, 139, 165, 188, 95, 91, 86, 61, 245, 197, 212, 57, 187, 248, 181, 190, 118, 26, 149, 190, 77, 75, 229, 189, 42, 187, 166, 189, 218, 28, 60, 189, 160, 95, 10, 63, 170, 13, 216, 190, 76, 106, 202, 187, 160, 227, 129, 190, 204, 181, 241, 190, 93, 46, 134, 62, 220, 166, 51, 62, 105, 137, 173, 61, 181, 130, 211, 189, 32, 29, 50, 189, 224, 244, 146, 63, 116, 54, 231, 61, 160, 223, 189, 190, 144, 102, 113, 61, 188, 224, 80, 63, 77, 108, 64, 190, 46, 132, 11, 191, 59, 205, 114, 191, 135, 31, 131, 61, 122, 8, 212, 61, 208, 86, 130, 62, 234, 230, 77, 189, 191, 137, 237, 190, 65, 169, 152, 58, 91, 158, 250, 189, 146, 146, 250, 60, 206, 12, 175, 62, 149, 182, 30, 63, 231, 110, 40, 190, 99, 157, 64, 60, 36, 10, 50, 189, 223, 245, 49, 191, 234, 58, 79, 191, 166, 165, 79, 61, 92, 102, 192, 190, 190, 242, 231, 61, 250, 120, 80, 63, 127, 176, 31, 191, 140, 40, 159, 61, 86, 17, 70, 191, 9, 197, 8, 190, 5, 223, 245, 60, 176, 160, 131, 61, 89, 59, 8, 61, 3, 245, 121, 61, 193, 219, 162, 189, 156, 113, 48, 191, 171, 196, 16, 191, 183, 100, 237, 188, 200, 167, 162, 61, 243, 114, 163, 62, 198, 116, 39, 60, 56, 250, 196, 190, 191, 18, 58, 188, 23, 111, 197, 59, 124, 66, 102, 190, 80, 240, 203, 187, 69, 244, 62, 61, 89, 49, 71, 61, 210, 214, 195, 189, 80, 150, 108, 190, 132, 90, 103, 62, 15, 66, 243, 189, 166, 184, 24, 187, 85, 252, 233, 189, 19, 164, 179, 190, 52, 199, 198, 59, 201, 248, 55, 62, 127, 203, 17, 63, 128, 59, 195, 62, 113, 14, 137, 63, 182, 87, 25, 63, 233, 91, 248, 61, 128, 180, 229, 188, 2, 211, 72, 63, 135, 53, 112, 190, 110, 118, 156, 190, 121, 97, 14, 190, 229, 147, 59, 62, 169, 116, 138, 191, 0, 245, 139, 191, 178, 112, 33, 191, 108, 222, 184, 60, 241, 154, 43, 61, 195, 72, 189, 190, 126, 122, 133, 58, 99, 96, 169, 62, 5, 22, 182, 60, 154, 149, 16, 62, 224, 205, 210, 188, 23, 36, 48, 63, 231, 204, 221, 62, 203, 12, 82, 62, 208, 172, 108, 60, 192, 179, 211, 60, 201, 246, 241, 190, 134, 185, 160, 190, 223, 185, 82, 61, 164, 114, 16, 191, 87, 62, 136, 62, 85, 100, 138, 62, 227, 116, 30, 61, 56, 121, 221, 62, 39, 247, 181, 191, 181, 243, 164, 190, 17, 6, 17, 61, 208, 197, 245, 61, 51, 71, 187, 60, 84, 104, 123, 61, 206, 132, 63, 189, 153, 192, 34, 191, 5, 119, 172, 190, 233, 108, 169, 62, 40, 81, 126, 62, 57, 190, 99, 60, 107, 217, 210, 188, 17, 213, 88, 191, 176, 116, 31, 61, 33, 36, 174, 188, 90, 166, 39, 191, 247, 200, 5, 189, 85, 152, 210, 60, 154, 92, 93, 59, 120, 199, 64, 62, 188, 27, 134, 61, 139, 5, 32, 190, 162, 39, 1, 190, 5, 152, 127, 191, 176, 108, 31, 62, 105, 231, 248, 190, 121, 60, 51, 60, 169, 58, 83, 190, 124, 187, 160, 62, 245, 123, 78, 190, 167, 27, 192, 63, 47, 159, 9, 63, 123, 28, 70, 190, 20, 204, 189, 56, 116, 66, 95, 63, 17, 130, 146, 190, 83, 8, 20, 191, 85, 10, 3, 190, 201, 244, 101, 62, 88, 217, 220, 191, 8, 221, 158, 191, 52, 150, 48, 190, 168, 201, 223, 61, 78, 60, 88, 61, 66, 110, 176, 62, 217, 7, 195, 188, 51, 150, 123, 190, 224, 241, 131, 60, 52, 73, 184, 62, 139, 171, 75, 61, 134, 255, 62, 189, 16, 117, 32, 62, 213, 14, 66, 190, 197, 144, 220, 188, 55, 228, 184, 186, 203, 27, 142, 190, 11, 248, 149, 190, 44, 71, 235, 59, 12, 65, 211, 190, 16, 202, 38, 63, 225, 177, 48, 63, 2, 26, 248, 62, 192, 132, 61, 62, 63, 185, 124, 191, 166, 196, 91, 63, 47, 217, 95, 189, 185, 91, 112, 61, 106, 215, 60, 61, 180, 159, 106, 61, 169, 103, 27, 189, 59, 57, 189, 190, 12, 82, 87, 191, 32, 89, 153, 63, 247, 189, 92, 61, 191, 97, 131, 62, 205, 252, 113, 188, 25, 194, 88, 191, 253, 182, 233, 60, 76, 21, 89, 190, 170, 186, 80, 191, 82, 32, 176, 188, 148, 205, 210, 60, 215, 151, 73, 61, 204, 72, 170, 62, 245, 157, 47, 188, 21, 60, 188, 190, 199, 87, 72, 188, 112, 6, 156, 190, 252, 168, 83, 62, 195, 128, 14, 191, 212, 104, 36, 189, 108, 47, 221, 190, 210, 86, 0, 191, 158, 242, 199, 62, 206, 173, 234, 190, 18, 239, 25, 63, 220, 174, 150, 190, 141, 42, 251, 188, 150, 221, 188, 62, 134, 22, 230, 190, 80, 146, 59, 191, 13, 247, 152, 190, 176, 184, 159, 62, 75, 1, 140, 191, 129, 108, 215, 191, 35, 99, 189, 59, 205, 36, 250, 61, 22, 77, 38, 58, 10, 120, 153, 190, 46, 199, 53, 189, 86, 226, 240, 190, 237, 155, 49, 189, 112, 53, 123, 190, 194, 84, 83, 60, 252, 232, 166, 61, 255, 7, 53, 62, 6, 130, 22, 191, 1, 157, 155, 60, 93, 152, 13, 189, 146, 37, 26, 190, 173, 215, 131, 190, 37, 51, 106, 61, 143, 173, 114, 190, 127, 167, 196, 62, 115, 179, 141, 61, 26, 15, 3, 63, 112, 107, 251, 62, 221, 176, 207, 190, 159, 152, 176, 62, 229, 1, 231, 188, 3, 111, 140, 61, 225, 5, 208, 61, 230, 196, 129, 61, 214, 250, 96, 189, 240, 30, 144, 190, 25, 4, 200, 191, 44, 165, 44, 62, 206, 205, 250, 188, 156, 53, 239, 61, 181, 171, 239, 60, 61, 5, 132, 189, 223, 171, 53, 61, 60, 24, 127, 62, 191, 49, 41, 191, 100, 67, 27, 61, 231, 157, 41, 189, 81, 107, 183, 60, 146, 202, 64, 62, 17, 83, 138, 190, 224, 31, 220, 190, 220, 252, 131, 62, 141, 111, 139, 62, 199, 121, 192, 61, 72, 55, 117, 188, 120, 169, 131, 189, 176, 90, 76, 63, 113, 140, 24, 62, 212, 136, 56, 190, 211, 53, 214, 62, 28, 134, 165, 62, 15, 217, 161, 61, 4, 175, 59, 61, 79, 143, 142, 62, 228, 14, 129, 190, 41, 6, 155, 62, 93, 221, 223, 190, 192, 54, 61, 63, 127, 41, 170, 189, 43, 143, 80, 191, 81, 120, 214, 189, 111, 203, 24, 62, 171, 173, 238, 61, 152, 162, 45, 191, 92, 155, 129, 189, 236, 171, 255, 61, 6, 86, 222, 60, 67, 15, 87, 61, 128, 151, 17, 61, 73, 73, 182, 62, 136, 56, 133, 62, 56, 85, 197, 189, 145, 151, 92, 60, 9, 243, 70, 61, 131, 62, 213, 62, 211, 76, 110, 190, 43, 169, 164, 61, 143, 144, 163, 62, 247, 42, 189, 62, 145, 190, 140, 62, 142, 52, 187, 62, 158, 168, 6, 63, 98, 192, 243, 190, 79, 108, 1, 63, 210, 190, 68, 189, 34, 34, 191, 61, 53, 8, 211, 61, 63, 91, 98, 189, 123, 2, 173, 189, 212, 234, 24, 63, 1, 204, 1, 191, 18, 203, 156, 190, 208, 149, 6, 188, 94, 194, 171, 61, 144, 181, 110, 189, 184, 115, 243, 62, 17, 181, 137, 186, 65, 14, 244, 190, 0, 210, 221, 62, 225, 155, 90, 60, 82, 156, 141, 189, 201, 106, 97, 189, 56, 43, 117, 190, 214, 191, 36, 61, 142, 83, 190, 190, 46, 224, 38, 63, 226, 171, 224, 62, 233, 137, 161, 62, 109, 8, 241, 60, 221, 170, 162, 189, 54, 6, 78, 63, 80, 47, 66, 62, 138, 96, 194, 190, 133, 92, 138, 63, 143, 236, 169, 62, 206, 0, 55, 62, 0, 180, 188, 188, 93, 27, 134, 59, 38, 88, 149, 190, 149, 238, 93, 62, 82, 152, 163, 190, 64, 12, 171, 62, 200, 250, 198, 62, 72, 61, 203, 189, 12, 44, 176, 189, 135, 90, 236, 61, 101, 254, 145, 61, 73, 231, 150, 190, 184, 0, 81, 59, 96, 31, 97, 62, 157, 110, 70, 189, 217, 170, 17, 59, 108, 234, 25, 189, 23, 125, 235, 62, 89, 16, 15, 63, 230, 22, 226, 190, 167, 86, 232, 188, 148, 191, 45, 61, 65, 45, 21, 61, 15, 163, 129, 62, 110, 138, 85, 61, 46, 67, 29, 63, 19, 86, 226, 189, 216, 120, 13, 190, 212, 190, 70, 63, 74, 239, 26, 63, 180, 155, 230, 189, 183, 203, 51, 63, 38, 193, 32, 61, 159, 118, 237, 61, 4, 235, 178, 61, 62, 111, 138, 189, 155, 193, 57, 60, 62, 253, 154, 61, 47, 44, 85, 61, 50, 54, 166, 188, 253, 159, 145, 189, 166, 154, 194, 190, 155, 23, 174, 188, 191, 171, 187, 62, 240, 109, 60, 61, 235, 114, 204, 189, 176, 128, 167, 62, 180, 170, 121, 60, 163, 227, 214, 61, 66, 66, 142, 189, 11, 179, 27, 191, 219, 47, 21, 61, 248, 31, 151, 190, 212, 238, 147, 60, 22, 89, 211, 190, 122, 30, 22, 190, 14, 98, 59, 191, 68, 14, 237, 188, 249, 226, 118, 190, 195, 23, 208, 190, 20, 70, 186, 189, 111, 187, 156, 63, 37, 3, 227, 61, 225, 183, 140, 63, 164, 170, 197, 188, 2, 59, 0, 191, 122, 124, 154, 191, 9, 181, 71, 191, 148, 140, 3, 190, 134, 67, 29, 62, 157, 29, 228, 62, 5, 210, 100, 189, 23, 160, 177, 190, 78, 249, 125, 187, 87, 86, 236, 61, 39, 236, 162, 190, 160, 85, 35, 189, 74, 63, 192, 62, 119, 52, 209, 60, 0, 225, 49, 191, 141, 194, 164, 60, 146, 94, 48, 62, 136, 110, 134, 62, 32, 187, 20, 190, 251, 92, 139, 57, 3, 200, 11, 188, 77, 210, 157, 62, 54, 152, 103, 62, 244, 173, 139, 188, 67, 30, 68, 63, 136, 95, 20, 190, 252, 132, 174, 190, 115, 72, 30, 63, 102, 82, 134, 62, 235, 224, 39, 63, 184, 75, 154, 62, 17, 182, 61, 189, 81, 25, 203, 61, 112, 116, 134, 61, 17, 107, 55, 189, 101, 97, 137, 189, 36, 5, 214, 190, 157, 69, 60, 191, 3, 93, 51, 191, 209, 148, 142, 190, 128, 243, 229, 189, 103, 135, 9, 189, 6, 189, 81, 190, 219, 201, 79, 60, 222, 29, 202, 190, 85, 227, 238, 190, 168, 70, 54, 61, 242, 5, 205, 189, 235, 91, 234, 187, 59, 52, 30, 191, 226, 241, 230, 189, 101, 135, 56, 189, 162, 142, 225, 190, 136, 37, 203, 62, 69, 132, 220, 61, 104, 99, 30, 191, 174, 143, 195, 189, 39, 16, 59, 191, 192, 144, 136, 188, 127, 141, 64, 191, 8, 80, 157, 61, 89, 192, 35, 191, 71, 241, 9, 63, 168, 232, 4, 189, 43, 254, 154, 190, 88, 11, 190, 190, 97, 173, 48, 191, 177, 127, 140, 60, 84, 38, 6, 191, 116, 33, 150, 190, 216, 176, 160, 190, 13, 130, 94, 188, 121, 246, 129, 61, 54, 225, 230, 61, 71, 90, 225, 190, 1, 230, 148, 188, 64, 201, 91, 190, 200, 13, 52, 60, 141, 27, 232, 190, 180, 114, 16, 188, 114, 7, 36, 62, 127, 11, 203, 62, 99, 161, 118, 62, 163, 144, 179, 188, 211, 35, 171, 60, 116, 154, 130, 188, 128, 207, 145, 62, 165, 157, 224, 60, 254, 40, 141, 62, 94, 122, 226, 190, 160, 104, 74, 190, 251, 212, 157, 60, 14, 158, 48, 191, 1, 30, 15, 63, 181, 183, 130, 189, 115, 12, 45, 60, 84, 32, 34, 61, 43, 236, 228, 61, 249, 187, 206, 60, 90, 146, 61, 60, 68, 155, 125, 190, 229, 100, 214, 191, 33, 104, 24, 191, 31, 126, 20, 190, 31, 170, 52, 191, 144, 30, 227, 60, 81, 88, 129, 190, 196, 15, 243, 186, 36, 128, 134, 190, 224, 10, 143, 190, 125, 16, 100, 186, 234, 87, 63, 190, 188, 70, 191, 188, 139, 48, 254, 190, 242, 37, 138, 190, 67, 127, 84, 62, 110, 26, 100, 61, 143, 218, 153, 62, 45, 182, 103, 61, 26, 239, 181, 190, 118, 204, 25, 189, 2, 83, 97, 191, 219, 251, 50, 62, 5, 86, 137, 191, 128, 212, 219, 63, 222, 44, 236, 190, 205, 173, 179, 62, 20, 19, 140, 60, 102, 57, 27, 191, 26, 46, 56, 191, 139, 242, 140, 189, 174, 9, 142, 190, 106, 21, 35, 190, 206, 238, 214, 190, 71, 90, 178, 190, 237, 32, 136, 62, 97, 177, 37, 60, 5, 183, 31, 62, 29, 193, 241, 61, 125, 233, 83, 61, 137, 196, 238, 190, 252, 15, 158, 59, 169, 247, 241, 190, 212, 116, 126, 60, 31, 112, 238, 62, 11, 152, 113, 190, 106, 35, 238, 189, 214, 163, 55, 61, 170, 18, 162, 60, 76, 19, 227, 61, 190, 72, 3, 62, 138, 186, 186, 187, 102, 228, 255, 61, 201, 37, 253, 190, 117, 209, 21, 191, 66, 255, 95, 62, 73, 195, 186, 61, 191, 38, 153, 62, 100, 162, 130, 189, 103, 181, 19, 188, 213, 200, 133, 61, 149, 79, 161, 61, 136, 104, 54, 61, 120, 41, 39, 189, 54, 64, 133, 190, 20, 64, 212, 190, 61, 200, 165, 62, 91, 58, 39, 190, 73, 83, 160, 61, 160, 6, 174, 188, 239, 92, 247, 62, 72, 143, 186, 59, 98, 205, 186, 190, 48, 198, 71, 190, 233, 39, 58, 61, 37, 208, 167, 189, 201, 179, 134, 61, 249, 140, 13, 190, 172, 34, 106, 62, 182, 16, 44, 62, 148, 27, 181, 190, 58, 211, 234, 61, 236, 77, 176, 56, 67, 171, 208, 189, 47, 175, 187, 188, 18, 80, 182, 190, 162, 250, 87, 62, 119, 189, 78, 60, 118, 251, 115, 63, 47, 45, 174, 190, 132, 167, 40, 63, 48, 86, 75, 188, 114, 172, 16, 191, 223, 163, 237, 189, 115, 2, 1, 61, 96, 123, 83, 190, 202, 186, 201, 59, 160, 160, 137, 62, 100, 139, 182, 61, 21, 132, 251, 61, 126, 179, 235, 188, 128, 250, 146, 59, 106, 177, 226, 189, 179, 223, 105, 60, 87, 23, 95, 190, 66, 193, 145, 60, 14, 145, 195, 61, 248, 99, 35, 189, 199, 220, 156, 62, 237, 161, 142, 62, 209, 99, 30, 191, 11, 132, 222, 187, 85, 1, 12, 61, 47, 20, 32, 190, 104, 116, 43, 63, 159, 92, 34, 61, 149, 236, 86, 63, 163, 173, 218, 190, 2, 23, 13, 191, 246, 90, 175, 62, 68, 74, 174, 62, 177, 9, 159, 62, 103, 108, 128, 189, 70, 235, 173, 188, 183, 209, 65, 61, 224, 39, 33, 62, 170, 234, 7, 189, 55, 223, 169, 60, 181, 92, 13, 191, 235, 104, 175, 190, 201, 199, 30, 190, 182, 71, 154, 189, 171, 243, 7, 63, 208, 55, 26, 189, 121, 237, 35, 63, 1, 104, 108, 188, 244, 118, 194, 190, 112, 194, 237, 61, 232, 238, 240, 60, 23, 233, 239, 189, 193, 89, 147, 61, 138, 85, 38, 190, 84, 167, 48, 190, 209, 129, 2, 63, 175, 126, 25, 191, 179, 85, 129, 190, 216, 144, 221, 61, 172, 9, 48, 191, 171, 155, 32, 61, 200, 79, 192, 62, 81, 154, 25, 61, 52, 148, 29, 63, 159, 117, 41, 63, 92, 179, 248, 190, 243, 119, 126, 63, 83, 157, 147, 57, 61, 67, 17, 190, 136, 176, 153, 189, 244, 167, 113, 190, 201, 159, 140, 189, 147, 160, 13, 190, 161, 51, 16, 63, 144, 121, 193, 62, 66, 68, 135, 62, 206, 36, 249, 60, 149, 37, 30, 189, 168, 224, 72, 62, 55, 165, 82, 188, 201, 115, 222, 62, 104, 236, 167, 60, 212, 86, 65, 189, 222, 201, 20, 189, 159, 65, 243, 62, 44, 96, 170, 189, 176, 62, 175, 62, 202, 210, 119, 189, 229, 186, 226, 60, 109, 39, 177, 190, 154, 111, 14, 189, 39, 195, 176, 61, 67, 90, 46, 63, 239, 201, 142, 189, 196, 72, 154, 190, 216, 249, 244, 190, 64, 81, 104, 188, 19, 142, 168, 62, 89, 146, 193, 189, 127, 211, 7, 189, 250, 93, 93, 60, 164, 60, 52, 62, 116, 147, 217, 61, 158, 24, 29, 61, 236, 53, 150, 61, 49, 225, 179, 190, 245, 106, 203, 190, 169, 77, 24, 61, 251, 124, 59, 63, 40, 21, 226, 60, 133, 11, 182, 62, 66, 190, 253, 188, 156, 219, 198, 190, 175, 56, 217, 61, 207, 228, 40, 61, 45, 37, 74, 190, 218, 145, 231, 188, 71, 89, 228, 190, 83, 253, 15, 191, 229, 44, 49, 63, 108, 150, 92, 191, 89, 17, 35, 62, 44, 194, 215, 60, 68, 48, 242, 190, 192, 112, 9, 60, 57, 200, 41, 190, 192, 246, 13, 63, 30, 205, 113, 191, 222, 8, 9, 190, 155, 86, 22, 191, 151, 184, 127, 62, 131, 213, 148, 188, 216, 130, 48, 191, 35, 56, 116, 62, 61, 161, 255, 62, 14, 205, 72, 189, 66, 4, 7, 191, 5, 52, 230, 62, 112, 220, 115, 63, 36, 36, 114, 190, 89, 56, 193, 61, 237, 112, 137, 189, 250, 230, 30, 188, 96, 9, 13, 61, 204, 148, 158, 61, 122, 99, 133, 60, 97, 160, 255, 62, 90, 254, 45, 59, 34, 121, 63, 63, 176, 72, 219, 189, 156, 44, 135, 62, 254, 71, 26, 189, 173, 30, 203, 60, 10, 140, 152, 190, 77, 162, 13, 191, 240, 25, 230, 61, 214, 228, 176, 61, 201, 70, 36, 62, 200, 63, 248, 190, 206, 12, 185, 190, 129, 135, 99, 191, 89, 93, 88, 190, 132, 200, 84, 62, 141, 56, 190, 59, 145, 132, 124, 61, 63, 199, 167, 61, 39, 183, 0, 188, 93, 150, 72, 61, 32, 175, 54, 190, 8, 194, 58, 191, 125, 79, 46, 62, 173, 152, 213, 60, 84, 110, 227, 190, 126, 240, 78, 189, 170, 26, 97, 62, 141, 243, 238, 60, 5, 247, 22, 191, 75, 188, 46, 191, 214, 197, 157, 59, 30, 243, 8, 190, 205, 45, 110, 60, 43, 244, 232, 61, 116, 245, 98, 185, 79, 156, 176, 62, 76, 125, 178, 189, 65, 217, 156, 191, 45, 46, 213, 62, 49, 221, 55, 189, 197, 50, 190, 188, 41, 239, 135, 190, 93, 109, 10, 63, 201, 76, 162, 62, 161, 107, 3, 62, 187, 55, 161, 190, 26, 228, 116, 62, 76, 241, 30, 59, 121, 135, 144, 191, 63, 210, 9, 62, 18, 36, 51, 63, 57, 150, 53, 62, 139, 229, 243, 190, 255, 129, 71, 60, 133, 91, 34, 62, 48, 82, 19, 190, 174, 149, 45, 62, 68, 170, 198, 61, 96, 96, 48, 190, 144, 12, 82, 61, 120, 36, 175, 62, 221, 24, 10, 61, 254, 109, 25, 63, 94, 82, 26, 188, 97, 151, 178, 62, 196, 59, 68, 191, 156, 90, 104, 191, 63, 176, 5, 61, 192, 165, 223, 188, 173, 40, 133, 190, 25, 89, 8, 191, 89, 188, 182, 61, 35, 25, 188, 190, 6, 88, 0, 63, 118, 165, 25, 191, 155, 215, 225, 187, 123, 12, 93, 190, 147, 165, 194, 190, 86, 207, 22, 63, 231, 111, 70, 60, 56, 146, 248, 60, 129, 188, 185, 61, 203, 91, 43, 61, 78, 15, 137, 189, 121, 210, 234, 189, 36, 56, 209, 61, 43, 3, 15, 63, 211, 167, 231, 189, 156, 203, 225, 190, 5, 62, 164, 188, 203, 141, 180, 189, 132, 112, 49, 189, 4, 120, 192, 190, 35, 23, 61, 191, 9, 107, 150, 59, 129, 39, 33, 190, 37, 151, 67, 189, 71, 239, 134, 62, 21, 247, 64, 191, 197, 165, 251, 61, 231, 127, 87, 190, 56, 202, 9, 191, 125, 247, 146, 187, 73, 104, 109, 186, 89, 14, 78, 188, 230, 26, 182, 61, 214, 122, 184, 62, 200, 92, 22, 63, 90, 250, 202, 61, 189, 128, 20, 191, 243, 103, 15, 189, 114, 180, 229, 186, 153, 203, 131, 189, 131, 92, 250, 189, 210, 171, 199, 62, 79, 116, 143, 61, 200, 253, 191, 190, 180, 171, 170, 189, 194, 203, 73, 62, 40, 161, 128, 61, 249, 249, 20, 62, 106, 58, 45, 61, 52, 8, 109, 62, 38, 38, 84, 61, 145, 45, 174, 190, 29, 120, 54, 60, 154, 47, 80, 62, 101, 149, 16, 189, 206, 121, 138, 62, 170, 221, 214, 190, 118, 245, 6, 61, 31, 54, 17, 61, 122, 230, 58, 189, 97, 0, 63, 189, 15, 138, 217, 190, 242, 214, 179, 61, 107, 4, 226, 190, 9, 132, 186, 62, 138, 124, 238, 190, 220, 203, 16, 62, 200, 95, 15, 191, 207, 213, 226, 62, 90, 80, 249, 62, 95, 244, 134, 187, 170, 206, 69, 188, 211, 215, 230, 61, 126, 222, 169, 60, 34, 20, 61, 188, 179, 227, 139, 190, 132, 107, 116, 62, 230, 113, 199, 62, 209, 110, 48, 190, 153, 190, 128, 190, 10, 222, 232, 59, 158, 56, 123, 62, 153, 196, 249, 60, 49, 139, 219, 61, 55, 72, 8, 191, 58, 219, 205, 60, 156, 32, 34, 190, 185, 190, 155, 61, 157, 142, 246, 60, 1, 230, 18, 191, 4, 29, 208, 61, 173, 156, 132, 62, 156, 141, 80, 190, 55, 34, 134, 62, 49, 91, 6, 61, 130, 28, 189, 60, 229, 91, 219, 62, 244, 190, 134, 61, 122, 86, 38, 60, 21, 46, 168, 62, 181, 208, 29, 191, 34, 245, 144, 62, 131, 97, 33, 189, 178, 202, 39, 188, 121, 81, 5, 63, 189, 42, 33, 63, 117, 237, 136, 188, 30, 58, 12, 62, 141, 207, 77, 60, 26, 46, 96, 62, 211, 181, 83, 62, 67, 150, 101, 61, 209, 89, 57, 61, 108, 240, 28, 63, 22, 71, 60, 189, 245, 70, 122, 190, 47, 191, 69, 188, 204, 68, 3, 63, 43, 42, 192, 60, 114, 49, 73, 62, 81, 153, 223, 62, 168, 124, 229, 61, 99, 117, 112, 187, 69, 114, 193, 60, 25, 81, 238, 61, 253, 178, 25, 191, 238, 82, 212, 61, 107, 207, 111, 190, 144, 216, 237, 61, 175, 211, 65, 189, 27, 161, 5, 191, 167, 198, 8, 190, 246, 27, 70, 190, 79, 8, 227, 62, 113, 126, 42, 61, 143, 189, 44, 61, 140, 103, 181, 61, 70, 42, 4, 61, 127, 229, 127, 189, 14, 218, 39, 190, 17, 190, 9, 63, 247, 255, 73, 63, 70, 245, 188, 189, 157, 67, 32, 62, 179, 20, 203, 188, 247, 1, 122, 190, 241, 215, 178, 188, 189, 138, 244, 189, 149, 142, 255, 190, 11, 103, 28, 189, 155, 116, 235, 189, 97, 2, 99, 61, 198, 128, 235, 62, 224, 247, 139, 190, 76, 206, 20, 62, 220, 179, 14, 191, 93, 205, 24, 62, 150, 19, 150, 61, 104, 191, 80, 189, 196, 137, 236, 187, 69, 103, 209, 62, 45, 177, 71, 190, 79, 203, 38, 63, 200, 239, 39, 63, 95, 222, 202, 190, 192, 218, 132, 63, 184, 128, 116, 188, 58, 248, 121, 190, 190, 236, 128, 191, 204, 181, 222, 62, 177, 224, 181, 190, 144, 109, 1, 63, 209, 91, 10, 191, 93, 137, 65, 190, 75, 117, 191, 62, 102, 77, 164, 188, 73, 108, 19, 59, 92, 133, 141, 63, 231, 111, 176, 188, 167, 44, 10, 189, 250, 0, 9, 59, 156, 109, 43, 63, 6, 126, 73, 61, 225, 177, 150, 190, 170, 52, 208, 61, 117, 66, 97, 191, 178, 45, 80, 61, 185, 26, 33, 60, 121, 146, 94, 62, 184, 165, 254, 189, 90, 61, 131, 61, 178, 100, 232, 189, 169, 171, 150, 60, 201, 30, 68, 190, 81, 158, 236, 190, 63, 150, 255, 61, 193, 7, 122, 190, 213, 194, 178, 62, 217, 144, 162, 60, 78, 122, 10, 61, 184, 53, 93, 187, 13, 54, 41, 60, 32, 235, 199, 188, 145, 247, 39, 190, 120, 174, 193, 62, 164, 176, 41, 63, 203, 215, 22, 60, 250, 214, 74, 190, 10, 44, 207, 59, 55, 162, 129, 190, 176, 171, 40, 189, 137, 19, 163, 190, 255, 127, 36, 61, 249, 114, 193, 188, 171, 9, 239, 189, 213, 215, 141, 60, 205, 238, 0, 63, 107, 92, 175, 189, 37, 186, 27, 62, 249, 28, 180, 60, 184, 114, 149, 189, 95, 127, 244, 188, 228, 8, 124, 191, 240, 150, 140, 188, 57, 86, 56, 63, 156, 68, 97, 191, 213, 248, 19, 62, 42, 190, 1, 63, 139, 67, 247, 186, 89, 130, 41, 63, 18, 156, 120, 60, 134, 191, 248, 60, 24, 114, 249, 190, 204, 180, 163, 190, 107, 243, 144, 190, 156, 216, 82, 189, 61, 216, 191, 190, 63, 51, 243, 190, 76, 19, 6, 63, 47, 162, 24, 61, 65, 140, 133, 188, 209, 247, 98, 188, 30, 39, 160, 188, 133, 163, 101, 62, 89, 38, 242, 60, 72, 199, 32, 63, 29, 86, 34, 60, 72, 17, 195, 190, 36, 18, 23, 190, 179, 77, 121, 62, 218, 169, 30, 60, 209, 98, 24, 61, 0, 148, 44, 62, 19, 91, 127, 190, 90, 143, 164, 61, 98, 77, 54, 191, 64, 14, 1, 63, 130, 23, 25, 191, 64, 178, 85, 191, 22, 19, 200, 188, 91, 22, 27, 62, 217, 149, 4, 63, 6, 212, 210, 188, 44, 26, 213, 58, 20, 50, 60, 61, 58, 237, 40, 189, 140, 254, 202, 188, 195, 238, 76, 190, 100, 9, 112, 191, 51, 101, 240, 62, 135, 209, 196, 189, 100, 242, 162, 189, 44, 209, 197, 60, 229, 126, 70, 190, 102, 98, 36, 189, 179, 241, 58, 62, 117, 65, 192, 62, 210, 87, 12, 189, 5, 117, 48, 189, 84, 193, 205, 61, 125, 254, 219, 62, 234, 81, 52, 62, 224, 4, 15, 61, 134, 249, 158, 189, 152, 1, 12, 190, 210, 204, 201, 60, 241, 92, 28, 191, 10, 147, 140, 60, 204, 124, 59, 63, 229, 192, 21, 191, 51, 166, 1, 62, 99, 79, 141, 62, 207, 164, 135, 62, 221, 211, 248, 62, 118, 80, 78, 189, 67, 105, 180, 189, 192, 212, 78, 191, 204, 184, 208, 61, 104, 204, 209, 189, 103, 220, 175, 190, 114, 220, 139, 185, 233, 189, 236, 61, 210, 67, 134, 62, 20, 70, 233, 61, 26, 55, 147, 189, 169, 131, 70, 62, 201, 246, 94, 59, 162, 195, 90, 63, 168, 171, 32, 189, 58, 97, 117, 63, 38, 50, 222, 60, 131, 82, 45, 191, 62, 83, 67, 191, 255, 177, 126, 190, 167, 38, 99, 61, 215, 229, 218, 187, 205, 170, 183, 190, 111, 188, 149, 189, 73, 32, 181, 61, 230, 144, 6, 190, 77, 170, 130, 62, 137, 251, 2, 63, 250, 62, 232, 190, 38, 235, 15, 190, 200, 221, 207, 188, 123, 4, 93, 62, 192, 76, 36, 60, 2, 9, 41, 61, 223, 151, 8, 61, 91, 72, 32, 188, 23, 246, 27, 188, 171, 33, 170, 62, 219, 239, 75, 190, 40, 23, 32, 63, 21, 170, 15, 188, 21, 200, 74, 190, 181, 246, 96, 60, 127, 82, 100, 191, 126, 255, 13, 187, 159, 71, 123, 62, 230, 128, 89, 62, 92, 194, 22, 189, 127, 149, 156, 188, 40, 70, 59, 61, 64, 53, 21, 63, 76, 83, 194, 62, 64, 62, 211, 188, 51, 207, 19, 191, 76, 48, 73, 191, 45, 189, 36, 62, 119, 251, 112, 191, 0, 163, 1, 61, 21, 99, 54, 63, 68, 80, 95, 191, 214, 143, 4, 63, 252, 169, 82, 61, 52, 96, 208, 62, 202, 35, 17, 63, 133, 144, 137, 60, 147, 147, 135, 62, 50, 74, 132, 191, 10, 102, 3, 191, 3, 206, 33, 190, 57, 191, 16, 191, 226, 252, 62, 191, 196, 85, 231, 190, 170, 8, 72, 62, 103, 200, 64, 61, 199, 134, 15, 189, 246, 49, 163, 61, 125, 119, 37, 189, 130, 119, 218, 62, 90, 35, 1, 189, 155, 15, 143, 62, 120, 79, 7, 61, 183, 70, 217, 190, 146, 1, 229, 190, 54, 192, 24, 190, 89, 27, 204, 187, 172, 4, 210, 188, 117, 253, 144, 190, 104, 118, 205, 62, 75, 190, 112, 61, 104, 5, 184, 190, 96, 164, 54, 62, 124, 155, 9, 63, 178, 46, 55, 61, 31, 201, 45, 191, 181, 129, 10, 189, 140, 147, 239, 61, 57, 174, 75, 189, 194, 134, 152, 188, 32, 2, 217, 60, 158, 216, 141, 59, 179, 111, 11, 61, 21, 25, 148, 62, 231, 43, 22, 191, 181, 121, 252, 62, 3, 116, 58, 189, 247, 223, 25, 190, 154, 48, 83, 59, 13, 123, 22, 62, 218, 114, 0, 189, 91, 213, 83, 62, 148, 119, 67, 189, 113, 11, 64, 189, 188, 209, 164, 189, 124, 218, 152, 61, 132, 201, 127, 62, 67, 202, 0, 63, 211, 11, 9, 190, 89, 136, 157, 189, 128, 52, 44, 191, 139, 55, 52, 190, 153, 29, 138, 191, 113, 172, 131, 188, 187, 132, 201, 62, 83, 146, 115, 189, 34, 177, 168, 189, 202, 93, 172, 62, 81, 195, 167, 62, 226, 95, 110, 61, 243, 231, 45, 60, 242, 40, 116, 62, 157, 128, 99, 191, 114, 159, 250, 190, 33, 103, 186, 188, 61, 154, 147, 190, 121, 89, 97, 190, 129, 236, 232, 190, 181, 168, 171, 61, 171, 171, 206, 59, 116, 149, 142, 189, 186, 44, 200, 187, 208, 81, 222, 188, 252, 36, 134, 62, 161, 228, 49, 189, 57, 47, 85, 61, 63, 66, 64, 61, 69, 204, 172, 190, 142, 203, 209, 61, 26, 164, 232, 62, 107, 38, 130, 61, 32, 124, 206, 60, 179, 178, 15, 62, 67, 10, 9, 63, 251, 23, 133, 188, 28, 59, 167, 61, 208, 75, 210, 61, 135, 246, 237, 62, 174, 138, 147, 61, 180, 231, 120, 190, 60, 178, 10, 62, 191, 150, 131, 61, 237, 75, 236, 188, 172, 200, 55, 189, 154, 103, 29, 189, 254, 203, 215, 60, 203, 171, 21, 61, 42, 120, 185, 61, 196, 81, 12, 62, 148, 71, 239, 62, 255, 106, 70, 190, 72, 42, 190, 190, 95, 224, 56, 61, 43, 224, 172, 190, 119, 101, 177, 60, 100, 144, 27, 63, 233, 213, 228, 61, 82, 209, 75, 60, 82, 16, 21, 62, 85, 59, 135, 61, 202, 33, 195, 188, 37, 222, 87, 62, 93, 119, 105, 60, 231, 183, 56, 63, 148, 106, 3, 191, 92, 131, 145, 190, 107, 177, 76, 191, 142, 129, 32, 189, 117, 7, 38, 63, 96, 52, 147, 190, 44, 100, 128, 62, 149, 157, 186, 190, 196, 44, 108, 62, 45, 117, 92, 63, 180, 187, 114, 60, 181, 217, 234, 61, 33, 116, 251, 190, 55, 161, 165, 188, 147, 88, 8, 190, 149, 147, 184, 62, 53, 37, 197, 190, 14, 13, 244, 189, 98, 161, 166, 62, 77, 42, 208, 59, 195, 12, 24, 189, 25, 63, 5, 61, 158, 130, 105, 189, 244, 227, 152, 62, 22, 184, 180, 188, 215, 72, 11, 63, 39, 90, 153, 188, 119, 205, 144, 190, 2, 209, 83, 191, 26, 126, 76, 191, 159, 147, 61, 60, 144, 214, 152, 188, 72, 72, 138, 190, 231, 160, 191, 189, 215, 46, 132, 188, 27, 107, 205, 190, 201, 60, 80, 62, 245, 6, 221, 62, 227, 128, 177, 190, 197, 63, 227, 62, 153, 241, 92, 189, 37, 240, 161, 62, 145, 251, 143, 61, 119, 87, 64, 187, 254, 19, 179, 189, 212, 60, 148, 187, 131, 68, 156, 60, 121, 29, 148, 62, 84, 47, 171, 190, 0, 52, 66, 63, 183, 245, 144, 190, 18, 72, 161, 62, 201, 26, 240, 187, 86, 156, 130, 191, 142, 132, 131, 60, 9, 244, 49, 63, 253, 208, 26, 190, 224, 73, 246, 188, 47, 183, 56, 62, 76, 100, 169, 61, 97, 29, 20, 190, 166, 210, 183, 62, 204, 116, 95, 58, 136, 236, 210, 62, 207, 89, 208, 190, 80, 62, 243, 190, 71, 207, 133, 191, 17, 98, 98, 189, 26, 202, 22, 62, 32, 159, 7, 191, 224, 247, 45, 191, 2, 247, 161, 189, 18, 202, 201, 189, 125, 191, 129, 190, 199, 225, 201, 188, 190, 230, 73, 62, 168, 202, 63, 191, 117, 153, 229, 190, 172, 93, 246, 189, 214, 246, 93, 63, 128, 131, 118, 191, 133, 105, 45, 191, 156, 18, 134, 62, 121, 48, 206, 60, 99, 16, 158, 189, 233, 252, 188, 61, 231, 217, 213, 60, 225, 191, 185, 62, 203, 104, 148, 187, 3, 56, 180, 62, 125, 67, 33, 189, 15, 73, 194, 190, 210, 245, 237, 62, 5, 21, 134, 191, 2, 237, 104, 61, 47, 207, 230, 188, 239, 97, 179, 190, 36, 84, 209, 189, 107, 244, 68, 61, 132, 70, 70, 191, 169, 85, 197, 61, 250, 243, 49, 63, 202, 138, 133, 190, 248, 80, 85, 63, 36, 11, 43, 190, 221, 162, 70, 62, 181, 254, 15, 61, 0, 113, 58, 61, 98, 90, 112, 189, 197, 236, 73, 189, 173, 138, 218, 60, 147, 183, 136, 189, 161, 165, 47, 62, 192, 133, 115, 63, 74, 248, 73, 189, 252, 79, 8, 63, 166, 69, 19, 189, 162, 72, 30, 191, 215, 94, 191, 188, 57, 192, 40, 62, 46, 196, 28, 189, 178, 34, 36, 188, 112, 0, 16, 62, 185, 87, 43, 189, 151, 7, 104, 62, 63, 190, 138, 62, 74, 170, 139, 188, 60, 231, 251, 189, 121, 12, 44, 191, 195, 52, 87, 191, 15, 163, 6, 191, 152, 25, 78, 189, 120, 51, 232, 190, 4, 187, 146, 62, 153, 25, 220, 190, 90, 243, 173, 61, 54, 3, 148, 189, 122, 176, 88, 62, 81, 66, 52, 61, 63, 46, 148, 62, 217, 74, 128, 189, 111, 148, 218, 61, 180, 17, 21, 61, 152, 145, 195, 190, 231, 48, 32, 191, 236, 251, 179, 189, 9, 1, 218, 62, 100, 179, 22, 60, 111, 51, 136, 187, 55, 35, 180, 190, 127, 178, 254, 188, 188, 1, 111, 190, 177, 178, 98, 59, 52, 109, 207, 190, 202, 59, 204, 188, 124, 113, 10, 191, 147, 147, 228, 61, 78, 127, 46, 191, 247, 176, 167, 59, 173, 227, 160, 188, 160, 215, 34, 191, 175, 240, 165, 62, 163, 49, 2, 61, 19, 51, 186, 62, 17, 22, 38, 190, 25, 39, 237, 62, 63, 92, 46, 190, 24, 102, 171, 190, 199, 90, 3, 61, 156, 209, 92, 62, 181, 216, 126, 61, 15, 45, 6, 61, 15, 235, 147, 188, 84, 246, 0, 189, 72, 21, 35, 61, 147, 15, 202, 62, 185, 99, 222, 187, 249, 114, 47, 63, 161, 219, 137, 59, 32, 232, 184, 62, 135, 99, 94, 61, 26, 191, 81, 62, 51, 100, 239, 60, 133, 173, 185, 189, 55, 188, 138, 61, 77, 244, 200, 186, 32, 29, 21, 62, 50, 114, 89, 61, 62, 6, 163, 62, 229, 149, 103, 62, 102, 214, 101, 190, 20, 54, 62, 61, 167, 55, 206, 189, 90, 157, 123, 189, 187, 124, 176, 190, 11, 119, 232, 188, 52, 65, 36, 59, 106, 45, 172, 62, 112, 122, 238, 190, 221, 46, 117, 61, 71, 30, 1, 62, 122, 231, 131, 61, 188, 15, 234, 187, 55, 155, 23, 62, 155, 88, 156, 190, 177, 251, 46, 62, 93, 246, 46, 62, 57, 88, 200, 190, 88, 171, 55, 60, 157, 116, 135, 60, 174, 30, 89, 62, 104, 151, 35, 60, 150, 129, 190, 188, 224, 157, 167, 191, 222, 232, 206, 188, 160, 91, 176, 189, 28, 20, 10, 188, 243, 134, 114, 189, 54, 178, 35, 61, 30, 25, 233, 190, 183, 236, 42, 191, 73, 80, 52, 191, 194, 38, 174, 61, 79, 144, 92, 188, 59, 107, 26, 191, 119, 187, 220, 61, 248, 28, 16, 61, 19, 32, 16, 63, 39, 86, 112, 62, 126, 66, 148, 62, 197, 70, 220, 189, 195, 207, 133, 62, 55, 252, 81, 60, 136, 146, 183, 62, 60, 243, 146, 60, 55, 41, 89, 188, 227, 250, 63, 189, 127, 94, 103, 61, 76, 60, 162, 61, 189, 32, 189, 62, 60, 254, 105, 63, 182, 3, 199, 62, 199, 122, 203, 61, 148, 0, 253, 189, 63, 187, 134, 186, 50, 238, 59, 61, 218, 127, 23, 189, 114, 26, 206, 62, 164, 96, 183, 62, 253, 180, 250, 188, 3, 234, 98, 62, 236, 118, 184, 187, 113, 160, 5, 190, 94, 132, 52, 62, 159, 148, 80, 190, 171, 193, 48, 62, 196, 112, 159, 62, 148, 10, 234, 61, 193, 248, 140, 190, 12, 228, 244, 188, 123, 34, 209, 61, 23, 252, 135, 189, 197, 44, 149, 190, 55, 94, 66, 63, 244, 19, 113, 61, 69, 211, 245, 62, 154, 79, 134, 188, 132, 212, 167, 62, 96, 75, 99, 190, 203, 219, 234, 189, 147, 170, 109, 62, 128, 253, 218, 61, 199, 210, 216, 62, 190, 232, 207, 61, 127, 136, 157, 62, 173, 196, 93, 61, 144, 141, 17, 189, 232, 115, 145, 61, 53, 201, 6, 61, 215, 124, 113, 61, 113, 106, 24, 189, 2, 103, 205, 61, 142, 179, 82, 188, 71, 33, 65, 62, 245, 141, 106, 191, 183, 237, 74, 190, 137, 12, 8, 61, 147, 178, 152, 60, 128, 26, 241, 190, 204, 17, 148, 190, 220, 149, 178, 61, 199, 113, 23, 62, 135, 130, 84, 190, 191, 198, 244, 62, 248, 41, 135, 62, 145, 199, 69, 62, 240, 144, 225, 190, 39, 194, 222, 189, 35, 3, 17, 61, 168, 41, 173, 61, 244, 151, 52, 189, 66, 78, 126, 189, 148, 252, 108, 61, 250, 239, 234, 62, 90, 66, 28, 63, 10, 114, 0, 63, 232, 49, 65, 61, 105, 232, 51, 190, 40, 144, 73, 189, 121, 63, 240, 62, 176, 169, 149, 188, 249, 51, 186, 62, 134, 172, 86, 63, 3, 33, 171, 60, 70, 65, 151, 62, 228, 102, 68, 60, 126, 242, 27, 190, 73, 9, 195, 62, 58, 199, 78, 190, 195, 209, 6, 62, 39, 178, 231, 62, 249, 138, 72, 191, 179, 124, 154, 190, 214, 111, 108, 189, 13, 111, 98, 63, 18, 241, 77, 191, 65, 50, 120, 190, 23, 57, 196, 63, 253, 80, 37, 63, 210, 96, 64, 63, 43, 223, 202, 60, 19, 44, 4, 63, 44, 205, 245, 190, 56, 216, 49, 190, 250, 8, 234, 62, 56, 210, 22, 63, 240, 62, 68, 63, 249, 25, 178, 62, 230, 0, 29, 62, 108, 11, 213, 60, 124, 170, 173, 189, 193, 33, 103, 188, 251, 102, 204, 188, 167, 77, 14, 63, 87, 52, 162, 60, 113, 115, 143, 190, 186, 209, 27, 189, 47, 42, 216, 190, 122, 157, 119, 63, 1, 58, 199, 62, 25, 58, 138, 61, 43, 44, 79, 59, 7, 95, 22, 189, 130, 208, 119, 62, 64, 0, 72, 60, 47, 159, 146, 62, 250, 31, 224, 61, 14, 247, 30, 63, 156, 226, 133, 62, 155, 239, 144, 62, 158, 86, 59, 191, 252, 145, 121, 61, 167, 65, 133, 61, 80, 0, 101, 188, 202, 88, 19, 60, 46, 43, 122, 60, 118, 12, 51, 61, 181, 230, 202, 61, 52, 246, 0, 62, 34, 81, 221, 61, 67, 184, 220, 61, 148, 166, 236, 189, 181, 77, 203, 189, 203, 69, 120, 189, 219, 0, 15, 189, 8, 241, 169, 61, 215, 179, 107, 63, 91, 194, 15, 61, 126, 254, 35, 62, 16, 97, 52, 60, 171, 131, 144, 190, 94, 246, 48, 62, 74, 35, 4, 190, 129, 131, 17, 190, 127, 216, 153, 190, 121, 235, 212, 191, 201, 92, 91, 190, 198, 49, 191, 189, 162, 239, 6, 63, 58, 180, 34, 190, 215, 122, 225, 189, 222, 241, 9, 63, 103, 185, 13, 63, 96, 3, 207, 62, 204, 50, 157, 59, 57, 251, 163, 62, 194, 173, 134, 190, 141, 247, 67, 191, 138, 110, 245, 62, 170, 80, 227, 190, 194, 95, 13, 62, 193, 174, 82, 62, 108, 157, 222, 62, 75, 7, 160, 187, 199, 116, 58, 189, 126, 8, 13, 61, 138, 2, 82, 189, 180, 187, 36, 63, 156, 230, 43, 188, 206, 81, 194, 190, 59, 211, 213, 60, 128, 220, 130, 191, 252, 99, 69, 190, 235, 208, 154, 190, 97, 64, 105, 61, 81, 81, 220, 60, 105, 173, 146, 190, 227, 146, 170, 189, 118, 112, 131, 61, 194, 103, 127, 190, 188, 130, 104, 62, 111, 45, 130, 62, 20, 147, 250, 62, 97, 38, 179, 190, 239, 222, 1, 190, 253, 197, 104, 188, 61, 235, 87, 61, 122, 164, 229, 60, 62, 160, 30, 62, 227, 246, 197, 60, 101, 223, 40, 61, 58, 240, 181, 190, 199, 187, 210, 61, 184, 195, 34, 63, 198, 161, 196, 61, 200, 246, 148, 190, 250, 254, 31, 189, 206, 182, 58, 191, 26, 93, 4, 61, 87, 120, 62, 61, 240, 174, 19, 190, 108, 161, 213, 188, 43, 168, 227, 61, 5, 12, 79, 60, 233, 1, 107, 190, 153, 140, 141, 60, 213, 178, 64, 189, 254, 235, 140, 188, 211, 86, 143, 62, 19, 71, 195, 191, 246, 231, 169, 190, 207, 120, 44, 189, 199, 70, 23, 190, 175, 38, 200, 189, 176, 184, 118, 62, 15, 247, 133, 63, 24, 25, 210, 62, 203, 117, 149, 189, 75, 143, 243, 60, 79, 57, 35, 63, 67, 54, 86, 190, 236, 101, 33, 191, 85, 99, 150, 62, 3, 155, 37, 63, 103, 63, 197, 190, 79, 22, 20, 190, 120, 119, 68, 61, 60, 97, 80, 61, 98, 40, 27, 189, 59, 255, 227, 62, 63, 123, 203, 188, 153, 66, 170, 189, 7, 9, 28, 61, 23, 6, 128, 189, 176, 125, 206, 59, 225, 200, 76, 191, 131, 250, 62, 191, 170, 211, 7, 191, 175, 70, 138, 187, 208, 7, 30, 61, 179, 154, 152, 190, 38, 30, 154, 61, 98, 187, 95, 60, 193, 193, 30, 190, 170, 50, 15, 190, 19, 172, 130, 62, 107, 215, 14, 62, 208, 231, 28, 63, 120, 203, 171, 190, 121, 238, 133, 61, 44, 175, 26, 189, 118, 143, 17, 189, 165, 138, 217, 61, 56, 52, 227, 60, 80, 26, 0, 61, 199, 58, 134, 185, 18, 17, 141, 190, 64, 98, 161, 62, 25, 62, 28, 62, 11, 19, 4, 190, 24, 191, 153, 189, 241, 7, 239, 62, 39, 51, 13, 189, 155, 31, 63, 190, 169, 161, 174, 190, 161, 191, 91, 60, 222, 148, 134, 61, 123, 164, 170, 187, 61, 41, 159, 190, 161, 114, 153, 61, 28, 99, 249, 189, 234, 166, 156, 61, 172, 194, 219, 61, 72, 132, 151, 191, 109, 94, 37, 190, 180, 55, 152, 189, 213, 49, 156, 190, 142, 238, 61, 63, 184, 42, 141, 63, 124, 225, 38, 63, 85, 189, 197, 62, 33, 206, 90, 62, 19, 42, 18, 61, 206, 52, 177, 61, 93, 149, 136, 61, 70, 46, 166, 190, 214, 191, 135, 61, 0, 46, 22, 63, 20, 188, 106, 62, 53, 90, 15, 191, 72, 82, 222, 61, 58, 252, 228, 188, 47, 147, 82, 189, 63, 91, 194, 62, 159, 115, 246, 186, 109, 228, 48, 190, 177, 39, 121, 59, 251, 230, 114, 191, 54, 42, 150, 59, 194, 142, 42, 191, 116, 232, 50, 63, 131, 33, 53, 190, 206, 152, 137, 59, 47, 191, 8, 61, 108, 198, 56, 190, 81, 23, 127, 62, 239, 152, 26, 189, 168, 212, 138, 63, 79, 178, 120, 190, 31, 37, 170, 189, 156, 154, 77, 63, 55, 135, 71, 63, 153, 91, 178, 188, 16, 161, 152, 189, 190, 81, 154, 61, 8, 42, 102, 60, 39, 97, 230, 61, 22, 225, 182, 189, 3, 96, 101, 60, 184, 179, 144, 60, 76, 89, 212, 61, 114, 198, 79, 189, 125, 191, 136, 189, 81, 176, 140, 62, 178, 222, 206, 189, 170, 210, 124, 188, 109, 133, 204, 188, 111, 7, 177, 62, 237, 32, 251, 61, 136, 37, 34, 189, 245, 113, 58, 189, 203, 232, 89, 61, 102, 242, 155, 190, 185, 137, 160, 190, 125, 178, 145, 190, 137, 35, 151, 189, 252, 50, 69, 62, 148, 217, 159, 191, 169, 236, 99, 189, 237, 204, 87, 60, 44, 205, 60, 190, 208, 85, 143, 189, 79, 97, 101, 63, 226, 235, 171, 63, 201, 128, 44, 189, 122, 22, 211, 62, 158, 208, 98, 61, 215, 250, 43, 62, 205, 96, 160, 189, 202, 194, 152, 190, 59, 148, 145, 190, 70, 201, 41, 63, 114, 95, 72, 60, 238, 136, 142, 190, 246, 211, 79, 61, 110, 239, 197, 59, 40, 206, 72, 189, 131, 38, 38, 63, 124, 46, 117, 60, 110, 110, 131, 190, 45, 193, 44, 60, 161, 236, 102, 191, 103, 61, 84, 60, 161, 146, 174, 60, 18, 43, 198, 62, 67, 165, 239, 61, 158, 8, 81, 61, 252, 167, 48, 61, 253, 238, 178, 60, 39, 24, 42, 190, 204, 13, 72, 61, 137, 32, 171, 190, 153, 88, 93, 190, 89, 44, 101, 190, 81, 153, 251, 62, 155, 155, 46, 63, 138, 193, 144, 62, 190, 74, 16, 190, 43, 95, 140, 60, 254, 227, 240, 60, 246, 155, 63, 61, 72, 243, 20, 189, 3, 103, 24, 61, 192, 6, 171, 189, 8, 30, 100, 189, 68, 182, 246, 190, 240, 166, 176, 188, 147, 125, 188, 62, 183, 5, 135, 189, 179, 205, 142, 190, 26, 55, 200, 60, 83, 27, 169, 62, 111, 171, 60, 61, 42, 12, 95, 186, 107, 157, 239, 61, 9, 149, 46, 189, 227, 212, 161, 190, 47, 202, 162, 61, 79, 28, 119, 190, 181, 25, 174, 190, 83, 115, 13, 63, 244, 47, 202, 191, 230, 47, 188, 189, 200, 226, 19, 60, 15, 199, 62, 63, 119, 120, 254, 61, 63, 171, 91, 189, 91, 180, 9, 63, 243, 136, 112, 62, 19, 211, 198, 62, 130, 206, 24, 188, 204, 162, 225, 189, 230, 5, 224, 62, 185, 199, 238, 190, 120, 84, 224, 189, 107, 238, 64, 62, 159, 16, 108, 62, 109, 48, 16, 190, 0, 149, 150, 190, 103, 254, 64, 59, 102, 243, 144, 58, 166, 11, 81, 62, 135, 161, 214, 60, 253, 93, 198, 61, 100, 59, 39, 61, 135, 250, 138, 191, 99, 230, 216, 60, 214, 230, 5, 63, 5, 11, 41, 63, 165, 239, 177, 62, 70, 101, 4, 61, 14, 50, 172, 187, 4, 146, 157, 189, 1, 102, 135, 62, 108, 7, 179, 61, 213, 54, 149, 190, 137, 228, 180, 190, 8, 20, 188, 61, 203, 235, 76, 63, 175, 157, 188, 62, 37, 207, 49, 62, 116, 128, 14, 62, 187, 209, 191, 189, 122, 70, 34, 189, 1, 129, 163, 61, 232, 89, 29, 189, 78, 132, 189, 60, 128, 87, 20, 61, 3, 200, 188, 60, 97, 119, 85, 188, 186, 83, 197, 187, 245, 57, 237, 189, 32, 117, 61, 189, 184, 14, 72, 190, 211, 208, 39, 61, 174, 45, 24, 63, 229, 77, 177, 188, 220, 102, 61, 188, 200, 6, 67, 61, 91, 40, 8, 186, 110, 147, 60, 191, 231, 124, 51, 62, 140, 221, 148, 188, 30, 27, 70, 191, 225, 110, 154, 190, 91, 128, 205, 191, 188, 179, 136, 62, 79, 104, 227, 189, 237, 158, 215, 61, 43, 129, 220, 61, 33, 170, 83, 191, 139, 56, 82, 63, 63, 185, 159, 189, 144, 138, 210, 188, 17, 100, 75, 188, 110, 151, 189, 189, 117, 113, 181, 62, 124, 38, 146, 61, 251, 78, 37, 186, 81, 241, 52, 62, 27, 20, 83, 62, 58, 17, 125, 62, 178, 247, 3, 62, 94, 141, 22, 189, 155, 147, 117, 60, 122, 185, 122, 190, 170, 243, 64, 188, 40, 33, 107, 189, 70, 225, 21, 59, 246, 207, 41, 191, 2, 187, 111, 188, 139, 161, 166, 62, 34, 125, 138, 190, 73, 164, 121, 190, 119, 188, 155, 61, 160, 100, 48, 189, 168, 254, 169, 190, 200, 74, 217, 62, 40, 211, 203, 61, 13, 247, 61, 190, 46, 239, 138, 188, 28, 128, 140, 187, 27, 65, 87, 62, 63, 104, 12, 190, 5, 88, 72, 61, 213, 137, 26, 190, 71, 175, 141, 189, 203, 159, 23, 61, 95, 100, 5, 62, 148, 175, 139, 59, 144, 31, 6, 185, 32, 2, 203, 189, 170, 142, 220, 61, 11, 247, 175, 188, 149, 250, 173, 189, 197, 103, 202, 190, 203, 206, 211, 189, 191, 252, 254, 62, 176, 122, 11, 189, 163, 216, 64, 62, 49, 250, 163, 187, 92, 30, 194, 58, 12, 47, 83, 188, 91, 139, 237, 187, 238, 213, 203, 190, 193, 117, 6, 61, 136, 76, 153, 189, 61, 223, 20, 61, 128, 252, 229, 189, 46, 38, 49, 191, 34, 195, 228, 190, 59, 112, 23, 61, 214, 33, 107, 62, 144, 65, 146, 187, 162, 110, 113, 191, 215, 43, 186, 62, 55, 129, 171, 190, 248, 29, 175, 62, 207, 241, 160, 188, 103, 53, 143, 190, 144, 77, 147, 190, 195, 32, 246, 62, 57, 152, 46, 190, 204, 19, 28, 191, 28, 255, 88, 189, 143, 223, 145, 62, 232, 191, 25, 191, 187, 115, 62, 60, 137, 204, 62, 188, 105, 116, 183, 189, 116, 36, 31, 189, 157, 179, 59, 191, 52, 18, 214, 188, 149, 205, 108, 191, 226, 29, 237, 188, 9, 126, 32, 61, 217, 164, 232, 190, 194, 217, 154, 191, 218, 210, 189, 187, 95, 213, 240, 188, 32, 146, 53, 190, 190, 18, 39, 63, 153, 90, 119, 61, 206, 231, 111, 63, 144, 178, 89, 63, 140, 24, 253, 189, 216, 1, 17, 189, 85, 121, 18, 191, 192, 83, 163, 62, 126, 73, 39, 63, 86, 196, 57, 61, 252, 63, 173, 188, 174, 35, 22, 62, 133, 3, 13, 61, 59, 2, 189, 59, 254, 234, 155, 189, 46, 170, 186, 62, 233, 0, 13, 62, 52, 199, 214, 189, 129, 55, 70, 191, 0, 155, 196, 189, 50, 164, 188, 188, 54, 202, 4, 188, 189, 15, 175, 62, 169, 143, 38, 63, 30, 74, 3, 61, 15, 141, 95, 189, 56, 69, 120, 61, 91, 63, 25, 191, 6, 28, 200, 187, 26, 206, 95, 190, 204, 163, 229, 62, 125, 178, 152, 61, 28, 89, 11, 191, 191, 82, 170, 61, 3, 122, 160, 189, 139, 109, 18, 63, 149, 22, 136, 190, 123, 126, 174, 190, 18, 224, 127, 63, 32, 125, 14, 190, 204, 59, 195, 63, 136, 197, 29, 61, 57, 115, 110, 60, 137, 135, 162, 62, 245, 53, 137, 189, 110, 57, 157, 190, 117, 30, 16, 188, 224, 242, 17, 62, 13, 234, 192, 61, 169, 254, 197, 190, 156, 96, 93, 60, 180, 146, 109, 61, 65, 57, 101, 62, 31, 176, 61, 186, 222, 68, 34, 63, 64, 200, 253, 188, 87, 203, 98, 191, 208, 132, 25, 61, 30, 120, 121, 62, 2, 142, 96, 62, 42, 176, 18, 191, 194, 85, 136, 61, 141, 12, 20, 61, 169, 211, 241, 189, 229, 236, 47, 62, 116, 111, 10, 62, 60, 191, 248, 61, 53, 111, 159, 62, 40, 175, 4, 187, 93, 249, 123, 62, 224, 244, 78, 189, 55, 61, 129, 62, 202, 69, 250, 61, 26, 213, 128, 61, 57, 6, 26, 188, 254, 109, 96, 61, 136, 80, 28, 189, 24, 77, 195, 61, 90, 160, 227, 190, 20, 189, 5, 190, 27, 170, 127, 190, 234, 254, 9, 190, 98, 184, 15, 62, 133, 251, 205, 188, 188, 116, 250, 62, 227, 249, 225, 60, 242, 183, 187, 62, 74, 26, 159, 62, 13, 209, 0, 189, 243, 60, 164, 60, 58, 82, 188, 61, 96, 188, 183, 190, 222, 51, 170, 190, 235, 27, 51, 62, 81, 243, 159, 62, 36, 23, 57, 63, 100, 120, 34, 191, 249, 187, 224, 61, 255, 89, 1, 189, 125, 67, 180, 62, 90, 210, 120, 62, 22, 237, 166, 190, 197, 139, 2, 189, 168, 199, 218, 189, 148, 171, 75, 63, 99, 75, 46, 61, 34, 102, 239, 190, 125, 105, 36, 62, 107, 182, 182, 62, 130, 88, 218, 189, 126, 41, 209, 61, 203, 161, 80, 63, 209, 70, 245, 62, 145, 232, 134, 190, 202, 114, 118, 189, 181, 139, 120, 61, 92, 119, 132, 190, 161, 112, 195, 59, 120, 29, 83, 62, 250, 7, 148, 60, 223, 56, 31, 61, 29, 204, 162, 188, 101, 244, 69, 187, 194, 136, 68, 62, 26, 128, 0, 191, 75, 83, 181, 61, 49, 17, 210, 186, 115, 56, 141, 61, 119, 200, 66, 190, 142, 105, 246, 61, 125, 57, 233, 62, 156, 103, 169, 62, 121, 250, 140, 190, 212, 104, 15, 188, 39, 194, 224, 61, 144, 237, 117, 189, 204, 190, 51, 61, 126, 103, 178, 60, 53, 39, 20, 189, 22, 204, 93, 61, 79, 255, 25, 189, 106, 58, 161, 60, 237, 179, 195, 61, 176, 165, 104, 61, 70, 227, 214, 190, 168, 65, 22, 60, 124, 28, 69, 63, 52, 55, 204, 189, 92, 103, 49, 62, 146, 244, 171, 185, 9, 113, 93, 62, 50, 184, 123, 190, 139, 217, 76, 188, 162, 164, 152, 61, 140, 110, 93, 61, 227, 217, 45, 191, 182, 98, 65, 60, 195, 41, 103, 62, 48, 22, 85, 190, 106, 240, 7, 190, 116, 13, 71, 190, 164, 68, 28, 62, 172, 26, 31, 189, 192, 77, 213, 62, 149, 145, 243, 61, 6, 251, 192, 189, 154, 10, 222, 189, 198, 74, 104, 190, 165, 41, 31, 63, 187, 156, 77, 61, 203, 128, 52, 62, 31, 168, 152, 62, 219, 204, 79, 62, 49, 230, 58, 62, 131, 45, 7, 190, 221, 22, 219, 61, 182, 104, 14, 63, 83, 211, 176, 190, 55, 2, 200, 61, 34, 153, 172, 61, 140, 115, 94, 63, 14, 168, 99, 189, 15, 65, 194, 62, 119, 27, 47, 188, 109, 214, 87, 62, 41, 25, 245, 188, 205, 143, 129, 62, 119, 22, 177, 61, 220, 218, 138, 191, 121, 129, 158, 61, 109, 24, 132, 188, 213, 129, 55, 61, 1, 65, 128, 189, 101, 123, 187, 61, 200, 118, 160, 61, 161, 185, 46, 63, 131, 24, 238, 62, 47, 202, 207, 190, 128, 217, 96, 190, 130, 225, 211, 190, 42, 103, 37, 62, 74, 213, 246, 61, 61, 109, 188, 59, 173, 76, 103, 185, 220, 127, 246, 189, 11, 216, 33, 61, 140, 223, 49, 190, 163, 145, 155, 62, 188, 156, 1, 190, 165, 139, 151, 62, 36, 187, 88, 62, 114, 83, 64, 189, 250, 105, 158, 190, 175, 132, 230, 60, 168, 64, 84, 62, 113, 89, 185, 188, 40, 152, 54, 61, 160, 115, 186, 61, 45, 2, 87, 188, 96, 62, 158, 190, 80, 25, 55, 62, 137, 120, 159, 189, 211, 11, 96, 189, 193, 87, 251, 62, 44, 0, 29, 191, 76, 118, 29, 190, 162, 152, 224, 59, 72, 23, 115, 62, 166, 248, 16, 63, 209, 221, 112, 62, 208, 47, 168, 63, 133, 108, 32, 63, 77, 45, 125, 63, 139, 172, 151, 60, 18, 162, 8, 189, 166, 50, 161, 61, 213, 198, 3, 63, 252, 169, 190, 61, 112, 197, 110, 190, 9, 229, 184, 189, 168, 127, 160, 190, 75, 48, 212, 61, 76, 244, 12, 62, 114, 17, 161, 61, 24, 103, 168, 62, 109, 231, 249, 60, 198, 77, 181, 62, 44, 33, 10, 186, 59, 186, 248, 189, 195, 10, 141, 60, 206, 62, 201, 62, 84, 240, 17, 191, 128, 201, 8, 191, 215, 24, 254, 59, 133, 81, 248, 59, 4, 184, 111, 190, 5, 247, 49, 191, 22, 216, 3, 61, 21, 49, 199, 190, 141, 219, 238, 62, 193, 169, 132, 61, 18, 20, 113, 62, 57, 50, 164, 190, 200, 90, 5, 191, 73, 160, 176, 62, 23, 143, 213, 61, 172, 11, 8, 61, 65, 203, 139, 189, 233, 124, 234, 189, 59, 88, 44, 61, 0, 246, 39, 191, 200, 39, 188, 189, 41, 126, 2, 190, 169, 209, 205, 189, 83, 24, 247, 61, 146, 3, 54, 189, 59, 223, 199, 62, 57, 31, 192, 188, 207, 65, 179, 190, 60, 227, 130, 63, 100, 237, 99, 188, 103, 137, 102, 62, 168, 27, 161, 60, 156, 211, 70, 190, 108, 91, 201, 62, 172, 110, 196, 190, 207, 85, 221, 62, 169, 146, 67, 62, 14, 13, 177, 190, 54, 122, 0, 61, 55, 151, 58, 188, 235, 134, 71, 63, 200, 47, 11, 63, 0, 152, 45, 63, 184, 71, 145, 63, 165, 235, 93, 63, 35, 235, 244, 63, 94, 183, 25, 61, 33, 252, 173, 190, 129, 43, 59, 191, 28, 246, 220, 62, 107, 23, 134, 190, 199, 10, 157, 190, 146, 34, 140, 62, 2, 104, 85, 63, 237, 212, 64, 63, 212, 236, 28, 62, 131, 19, 18, 61, 76, 128, 179, 190, 91, 40, 24, 61, 51, 106, 12, 63, 46, 27, 178, 60, 238, 97, 149, 189, 14, 178, 144, 61, 162, 50, 40, 62, 17, 239, 61, 191, 91, 41, 3, 191, 74, 72, 69, 61, 199, 206, 26, 188, 187, 39, 27, 191, 235, 74, 159, 189, 148, 106, 129, 187, 225, 18, 181, 190, 92, 6, 56, 63, 176, 138, 148, 62, 227, 123, 13, 63, 221, 26, 215, 190, 126, 3, 5, 61, 188, 237, 192, 62, 194, 160, 27, 189, 215, 156, 152, 60, 219, 206, 47, 189, 238, 54, 4, 187, 2, 82, 172, 61, 196, 204, 255, 190, 175, 110, 136, 189, 68, 175, 7, 63, 197, 131, 128, 190, 28, 242, 131, 189, 147, 79, 79, 189, 39, 177, 67, 191, 118, 208, 182, 188, 94, 46, 134, 190, 149, 20, 97, 190, 152, 46, 123, 60, 81, 93, 105, 190, 130, 0, 185, 60, 15, 93, 44, 63, 44, 57, 142, 191, 92, 220, 39, 191, 66, 52, 218, 62, 247, 187, 251, 190, 226, 192, 163, 63, 146, 215, 131, 62, 163, 82, 84, 189, 153, 248, 80, 190, 137, 143, 53, 191, 150, 208, 212, 189, 33, 142, 0, 192, 84, 111, 97, 62, 164, 91, 167, 190, 152, 77, 246, 188, 191, 211, 151, 62, 101, 81, 188, 62, 201, 246, 242, 190, 233, 236, 137, 190, 138, 136, 160, 63, 118, 84, 57, 191, 164, 171, 157, 190, 205, 3, 187, 191, 206, 135, 100, 189, 142, 118, 34, 61, 84, 43, 77, 63, 163, 205, 5, 189, 19, 166, 216, 61, 91, 91, 117, 188, 106, 0, 42, 62, 148, 53, 13, 61, 214, 218, 150, 63, 189, 29, 34, 63, 5, 85, 3, 63, 231, 78, 133, 189, 20, 164, 100, 60, 164, 210, 0, 191, 139, 9, 207, 191, 255, 99, 14, 61, 196, 71, 166, 191, 218, 58, 137, 190, 179, 31, 15, 191, 8, 115, 61, 190, 208, 115, 104, 63, 11, 98, 213, 191, 91, 59, 226, 190, 254, 201, 81, 188, 51, 150, 129, 61, 11, 201, 130, 189, 186, 238, 8, 189, 57, 160, 114, 61, 17, 98, 13, 192, 206, 71, 12, 190, 169, 234, 178, 62, 162, 114, 73, 191, 28, 104, 41, 63, 100, 171, 128, 187, 103, 131, 153, 62, 210, 157, 253, 60, 146, 197, 134, 191, 196, 237, 20, 190, 52, 96, 42, 188, 161, 237, 169, 190, 223, 9, 241, 186, 237, 162, 32, 63, 50, 25, 146, 190, 161, 133, 135, 191, 187, 208, 97, 61, 14, 66, 112, 191, 167, 218, 1, 63, 111, 109, 234, 190, 5, 156, 230, 188, 205, 188, 51, 190, 209, 8, 171, 190, 3, 242, 7, 63, 83, 27, 108, 191, 155, 113, 30, 63, 37, 14, 222, 190, 145, 187, 153, 188, 90, 138, 240, 60, 197, 211, 100, 191, 150, 118, 43, 188, 5, 55, 222, 189, 144, 170, 242, 62, 83, 164, 172, 190, 216, 229, 49, 191, 37, 177, 158, 191, 67, 19, 33, 189, 143, 135, 237, 60, 185, 91, 197, 189, 45, 20, 30, 61, 38, 91, 97, 189, 11, 241, 190, 60, 121, 96, 18, 190, 139, 41, 162, 188, 18, 85, 93, 63, 131, 212, 77, 191, 10, 201, 20, 63, 226, 165, 244, 188, 109, 65, 207, 188, 203, 169, 105, 191, 39, 121, 162, 190, 136, 63, 252, 188, 54, 107, 168, 190, 239, 237, 46, 189, 3, 239, 124, 191, 102, 147, 237, 62, 31, 167, 223, 62, 249, 111, 234, 190, 33, 105, 212, 187, 217, 44, 67, 189, 38, 93, 165, 60, 197, 3, 185, 188, 203, 25, 22, 60, 189, 32, 111, 61, 3, 65, 215, 191, 242, 43, 43, 191, 103, 233, 98, 191, 130, 194, 40, 191, 91, 15, 81, 62, 36, 74, 124, 61, 237, 188, 179, 62, 196, 203, 36, 60, 188, 247, 240, 190, 25, 229, 36, 62, 192, 142, 152, 187, 24, 53, 130, 190, 195, 138, 17, 189, 69, 61, 85, 62, 94, 165, 138, 190, 51, 21, 48, 191, 158, 127, 20, 63, 246, 177, 60, 62, 19, 35, 76, 62, 42, 164, 125, 62, 239, 40, 62, 60, 125, 162, 178, 62, 81, 44, 221, 189, 184, 160, 247, 190, 135, 226, 74, 191, 177, 30, 238, 190, 55, 208, 211, 60, 8, 252, 0, 189, 37, 147, 23, 190, 0, 187, 148, 189, 148, 144, 184, 189, 226, 183, 223, 188, 146, 252, 245, 62, 88, 235, 90, 62, 21, 158, 30, 190, 192, 251, 192, 191, 172, 157, 91, 189, 32, 138, 126, 61, 77, 136, 92, 191, 143, 8, 58, 61, 148, 31, 3, 62, 136, 11, 39, 189, 183, 39, 80, 189, 78, 59, 214, 188, 56, 103, 36, 63, 208, 63, 129, 62, 178, 182, 35, 63, 81, 6, 176, 189, 0, 180, 4, 189, 53, 219, 83, 190, 74, 251, 139, 190, 248, 94, 31, 60, 195, 39, 190, 60, 11, 241, 123, 189, 225, 110, 158, 191, 40, 37, 186, 60, 253, 66, 10, 63, 31, 22, 191, 190, 253, 129, 201, 189, 49, 236, 6, 61, 190, 220, 30, 188, 56, 250, 144, 189, 34, 116, 8, 188, 76, 169, 85, 61, 101, 209, 130, 191, 233, 209, 134, 61, 68, 201, 114, 191, 215, 145, 66, 191, 195, 190, 247, 62, 20, 168, 136, 60, 151, 215, 12, 63, 58, 57, 161, 60, 95, 242, 238, 190, 241, 23, 155, 62, 57, 175, 2, 61, 255, 208, 77, 190, 172, 80, 125, 60, 230, 153, 28, 190, 142, 106, 207, 190, 133, 147, 12, 191, 161, 106, 172, 190, 26, 91, 72, 191, 95, 97, 239, 62, 58, 245, 244, 61, 78, 152, 250, 60, 171, 95, 39, 62, 120, 156, 81, 191, 235, 194, 251, 191, 3, 190, 71, 191, 123, 169, 106, 190, 80, 201, 187, 61, 81, 174, 193, 60, 64, 54, 225, 60, 4, 106, 81, 191, 19, 206, 30, 191, 157, 48, 28, 61, 69, 179, 123, 191, 74, 29, 0, 190, 179, 223, 148, 62, 167, 137, 195, 191, 61, 253, 167, 189, 254, 144, 47, 61, 71, 61, 93, 191, 227, 74, 58, 189, 235, 29, 162, 62, 41, 25, 234, 188, 239, 96, 179, 189, 184, 158, 118, 188, 28, 7, 191, 62, 183, 206, 165, 191, 154, 234, 95, 62, 51, 68, 172, 189, 142, 76, 253, 60, 69, 42, 56, 190, 109, 77, 14, 190, 158, 149, 253, 60, 89, 7, 55, 191, 33, 16, 150, 189, 190, 50, 106, 191, 161, 56, 70, 191, 209, 17, 59, 191, 232, 166, 47, 190, 75, 255, 53, 190, 87, 77, 219, 188, 27, 88, 46, 189, 30, 139, 44, 188, 26, 100, 227, 188, 189, 213, 117, 61, 99, 109, 118, 191, 37, 45, 172, 62, 218, 197, 149, 190, 213, 220, 63, 191, 71, 224, 50, 191, 94, 242, 96, 60, 212, 0, 243, 190, 74, 75, 135, 60, 163, 146, 74, 191, 109, 140, 175, 62, 203, 32, 5, 186, 254, 0, 120, 190, 16, 192, 40, 189, 111, 234, 173, 190, 148, 138, 119, 191, 115, 5, 84, 190, 33, 206, 26, 63, 160, 226, 5, 63, 46, 201, 12, 63, 107, 229, 207, 190, 116, 132, 124, 60, 194, 174, 196, 190, 83, 151, 207, 190, 54, 116, 77, 62, 93, 99, 50, 190, 52, 91, 20, 191, 183, 130, 27, 190, 160, 21, 3, 61, 36, 122, 189, 61, 206, 249, 83, 62, 91, 199, 208, 190, 197, 141, 247, 188, 105, 109, 147, 60, 164, 96, 72, 191, 159, 110, 238, 190, 53, 44, 67, 191, 168, 135, 26, 189, 87, 55, 103, 61, 175, 147, 224, 190, 241, 133, 253, 60, 89, 123, 137, 62, 213, 45, 181, 188, 51, 34, 9, 188, 0, 44, 187, 58, 130, 185, 75, 63, 175, 242, 196, 190, 254, 220, 142, 190, 167, 110, 147, 189, 16, 161, 51, 60, 88, 197, 230, 190, 141, 42, 105, 189, 120, 201, 158, 187, 152, 92, 152, 189, 94, 105, 186, 60, 142, 142, 18, 191, 23, 168, 113, 191, 60, 184, 218, 61, 183, 135, 213, 190, 163, 89, 2, 188, 136, 171, 215, 188, 231, 106, 203, 59, 22, 230, 119, 189, 11, 143, 63, 59, 175, 40, 223, 187, 76, 202, 41, 191, 176, 237, 155, 191, 20, 180, 37, 60, 110, 239, 244, 190, 183, 157, 192, 60, 68, 50, 192, 60, 139, 219, 99, 61, 26, 157, 231, 60, 58, 11, 236, 190, 149, 120, 201, 189, 149, 176, 187, 60, 79, 27, 94, 190, 167, 154, 23, 61, 143, 111, 155, 190, 83, 236, 0, 191, 85, 166, 78, 190, 50, 196, 4, 191, 36, 55, 108, 63, 217, 100, 250, 62, 150, 23, 4, 63, 219, 229, 10, 61, 235, 26, 206, 190, 26, 102, 62, 191, 47, 97, 88, 191, 83, 157, 203, 62, 144, 29, 200, 189, 243, 44, 198, 60, 40, 214, 231, 59, 151, 220, 58, 62, 227, 34, 77, 63, 162, 149, 165, 189, 50, 215, 79, 189, 165, 182, 203, 62, 163, 71, 38, 191, 64, 183, 248, 190, 142, 207, 169, 61, 105, 73, 185, 60, 80, 142, 15, 61, 149, 119, 130, 189, 205, 227, 222, 188, 21, 25, 206, 61, 176, 222, 34, 60, 136, 76, 206, 189, 46, 223, 146, 188, 60, 67, 110, 62, 77, 228, 70, 190, 218, 100, 5, 63, 241, 187, 155, 59, 17, 91, 49, 61, 133, 15, 141, 62, 232, 43, 94, 191, 162, 182, 178, 60, 70, 116, 115, 190, 96, 250, 52, 189, 243, 69, 144, 190, 94, 137, 193, 191, 95, 222, 63, 62, 32, 38, 31, 191, 147, 58, 129, 187, 37, 32, 153, 187, 172, 46, 207, 188, 132, 134, 66, 188, 163, 71, 242, 60, 124, 39, 136, 61, 15, 106, 65, 191, 188, 10, 59, 190, 237, 151, 148, 60, 116, 158, 90, 190, 163, 29, 69, 62, 212, 21, 12, 189, 114, 252, 176, 62, 78, 71, 137, 60, 213, 43, 80, 190, 240, 37, 59, 189, 111, 134, 204, 188, 160, 84, 133, 190, 113, 21, 207, 60, 198, 160, 186, 61, 97, 170, 167, 190, 152, 136, 102, 189, 85, 210, 131, 62, 135, 174, 67, 62, 165, 118, 161, 62, 80, 97, 148, 190, 90, 84, 213, 188, 118, 64, 10, 60, 184, 129, 188, 190, 182, 1, 211, 190, 220, 68, 169, 189, 40, 123, 242, 61, 38, 234, 38, 190, 127, 221, 19, 189, 35, 227, 49, 62, 222, 208, 156, 61, 130, 113, 213, 190, 217, 138, 30, 60, 248, 35, 134, 190, 35, 12, 116, 190, 89, 44, 20, 191, 236, 1, 119, 62, 79, 8, 247, 188, 13, 31, 24, 60, 71, 64, 111, 190, 196, 160, 39, 188, 188, 188, 117, 62, 170, 198, 230, 187, 205, 232, 139, 60, 156, 101, 60, 189, 177, 86, 116, 190, 230, 60, 149, 191, 195, 94, 197, 189, 67, 19, 197, 188, 168, 90, 81, 188, 214, 139, 224, 62, 236, 6, 237, 190, 128, 78, 132, 59, 214, 181, 246, 190, 163, 19, 249, 188, 102, 100, 217, 61, 240, 247, 22, 191, 195, 150, 82, 190, 96, 73, 45, 191, 223, 109, 46, 189, 194, 234, 186, 188, 121, 28, 21, 61, 142, 41, 183, 188, 183, 186, 156, 60, 135, 203, 96, 59, 83, 87, 54, 190, 252, 238, 38, 191, 193, 19, 97, 187, 113, 221, 48, 190, 117, 28, 128, 189, 134, 190, 4, 61, 134, 58, 63, 188, 122, 43, 191, 60, 59, 14, 204, 190, 126, 233, 171, 62, 157, 216, 212, 188, 170, 70, 73, 190, 124, 248, 200, 60, 150, 231, 41, 62, 177, 135, 5, 191, 65, 122, 101, 189, 187, 217, 2, 62, 246, 36, 50, 191, 25, 105, 235, 61, 124, 80, 21, 191, 112, 70, 180, 188, 11, 20, 130, 62, 13, 246, 115, 191, 203, 41, 75, 61, 97, 182, 91, 189, 102, 197, 48, 62, 138, 80, 76, 190, 201, 4, 225, 188, 87, 43, 133, 62, 247, 110, 16, 62, 243, 34, 146, 191, 52, 122, 39, 190, 116, 15, 91, 62, 132, 212, 169, 190, 0, 218, 137, 190, 211, 225, 237, 62, 225, 192, 153, 60, 240, 126, 83, 61, 188, 94, 184, 188, 225, 170, 17, 189, 218, 81, 33, 63, 79, 105, 8, 189, 206, 202, 16, 63, 94, 101, 140, 60, 46, 38, 161, 190, 24, 137, 67, 190, 12, 16, 140, 191, 68, 240, 101, 189, 0, 147, 107, 60, 78, 232, 30, 190, 120, 72, 176, 191, 205, 159, 0, 189, 185, 213, 29, 191, 182, 255, 19, 189, 199, 184, 241, 61, 69, 30, 59, 191, 253, 211, 119, 62, 1, 233, 164, 190, 77, 127, 173, 60, 188, 145, 21, 189, 99, 94, 12, 189, 254, 231, 169, 188, 108, 153, 81, 188, 6, 208, 207, 60, 117, 144, 225, 61, 84, 175, 58, 191, 185, 85, 251, 187, 35, 8, 144, 189, 36, 205, 164, 62, 141, 166, 66, 188, 216, 157, 57, 191, 0, 132, 4, 184, 101, 125, 205, 190, 245, 208, 62, 62, 8, 232, 99, 60, 90, 226, 90, 190, 71, 137, 6, 189, 235, 174, 95, 61, 250, 9, 250, 190, 151, 58, 210, 60, 252, 206, 196, 190, 155, 29, 41, 191, 105, 147, 148, 62, 5, 44, 50, 191, 49, 58, 24, 187, 49, 98, 111, 190, 213, 224, 118, 191, 23, 73, 90, 63, 230, 105, 170, 60, 238, 19, 29, 190, 211, 106, 165, 189, 4, 232, 41, 188, 179, 249, 34, 62, 203, 210, 255, 189, 106, 143, 182, 191, 80, 67, 139, 189, 118, 53, 86, 190, 56, 245, 186, 191, 73, 230, 152, 191, 80, 90, 139, 62, 160, 155, 64, 189, 33, 104, 59, 61, 134, 211, 160, 62, 73, 2, 28, 60, 120, 108, 214, 62, 166, 31, 27, 61, 33, 59, 120, 190, 132, 29, 129, 60, 70, 82, 206, 188, 113, 71, 174, 190, 172, 9, 219, 190, 129, 248, 159, 189, 157, 143, 49, 61, 218, 252, 120, 62, 180, 144, 137, 191, 195, 22, 131, 188, 187, 87, 167, 191, 22, 44, 232, 188, 150, 43, 156, 190, 75, 19, 7, 191, 216, 177, 180, 190, 23, 173, 156, 191, 162, 250, 67, 60, 35, 25, 188, 188, 90, 172, 55, 188, 85, 7, 150, 57, 215, 169, 24, 188, 167, 59, 140, 60, 243, 149, 26, 191, 102, 45, 175, 191, 228, 82, 187, 188, 85, 236, 162, 60, 64, 90, 45, 190, 214, 101, 83, 189, 145, 90, 54, 63, 32, 41, 57, 188, 107, 22, 69, 190, 113, 129, 200, 60, 144, 150, 112, 187, 214, 82, 37, 190, 169, 135, 214, 60, 221, 9, 216, 62, 204, 153, 215, 190, 225, 61, 219, 61, 37, 8, 160, 59, 143, 111, 24, 188, 188, 124, 164, 62, 210, 70, 178, 190, 38, 189, 211, 188, 212, 202, 66, 188, 173, 54, 217, 60, 87, 134, 86, 191, 42, 221, 2, 189, 106, 13, 128, 189, 201, 86, 242, 189, 212, 182, 101, 60, 28, 151, 251, 61, 28, 188, 147, 62, 226, 220, 143, 61, 98, 87, 69, 189, 57, 206, 132, 62, 222, 7, 210, 190, 172, 211, 248, 189, 53, 38, 160, 190, 64, 210, 199, 188, 178, 205, 201, 61, 128, 100, 26, 191, 187, 36, 44, 189, 160, 136, 189, 62, 58, 53, 21, 189, 134, 186, 180, 62, 148, 66, 168, 188, 23, 210, 143, 189, 102, 155, 237, 62, 112, 0, 10, 63, 97, 191, 153, 189, 227, 32, 250, 188, 238, 169, 2, 190, 129, 213, 34, 191, 81, 96, 229, 188, 248, 165, 21, 191, 100, 61, 61, 60, 161, 205, 142, 190, 27, 236, 11, 191, 144, 218, 100, 62, 131, 50, 73, 191, 8, 100, 53, 188, 20, 203, 19, 61, 182, 150, 182, 188, 221, 255, 138, 58, 60, 242, 0, 188, 243, 224, 66, 60, 13, 143, 208, 190, 149, 39, 20, 192, 66, 220, 165, 187, 237, 187, 144, 61, 107, 125, 68, 189, 57, 111, 244, 59, 13, 120, 15, 191, 30, 28, 190, 60, 123, 164, 77, 190, 116, 185, 130, 62, 12, 135, 5, 60, 22, 155, 83, 190, 62, 41, 31, 189, 32, 235, 40, 63, 130, 71, 114, 190, 204, 142, 86, 62, 68, 12, 74, 190, 174, 217, 110, 190, 117, 76, 37, 62, 210, 44, 193, 190, 17, 187, 54, 60, 157, 154, 218, 61, 92, 20, 23, 191, 105, 91, 175, 191, 77, 202, 26, 60, 60, 86, 115, 190, 75, 144, 109, 190, 189, 156, 237, 188, 81, 131, 105, 62, 179, 77, 220, 189, 97, 73, 19, 191, 202, 65, 254, 189, 108, 45, 245, 186, 90, 81, 150, 191, 90, 129, 91, 191, 87, 223, 239, 190, 163, 30, 148, 60, 5, 44, 41, 61, 248, 142, 86, 190, 23, 60, 20, 189, 13, 20, 229, 62, 197, 157, 249, 188, 233, 102, 246, 62, 156, 186, 88, 188, 232, 38, 137, 189, 89, 128, 46, 190, 79, 56, 133, 191, 169, 31, 90, 189, 178, 105, 250, 60, 24, 74, 231, 189, 60, 104, 210, 190, 134, 85, 224, 60, 63, 111, 48, 191, 88, 158, 171, 188, 95, 78, 205, 188, 158, 230, 12, 191, 104, 99, 144, 189, 67, 11, 99, 190, 120, 238, 26, 189, 220, 167, 45, 188, 20, 181, 82, 60, 43, 160, 4, 60, 82, 125, 69, 189, 57, 198, 175, 60, 172, 249, 36, 191, 252, 127, 214, 191, 92, 246, 164, 61, 217, 252, 232, 61, 4, 108, 33, 190, 168, 31, 211, 188, 198, 6, 21, 191, 189, 244, 16, 61, 147, 37, 116, 190, 192, 146, 18, 190, 224, 99, 249, 58, 60, 145, 44, 190, 9, 180, 231, 60, 250, 236, 24, 63, 91, 215, 157, 190, 15, 25, 190, 62, 137, 2, 204, 190, 161, 250, 56, 190, 230, 200, 164, 61, 27, 20, 22, 191, 145, 104, 29, 189, 252, 246, 81, 62, 179, 89, 230, 61, 131, 54, 33, 191, 103, 72, 222, 188, 169, 120, 65, 190, 237, 76, 82, 190, 56, 47, 148, 188, 98, 254, 87, 189, 142, 59, 50, 62, 137, 190, 76, 191, 28, 253, 24, 190, 46, 130, 178, 190, 71, 12, 117, 191, 190, 247, 130, 191, 31, 36, 223, 61, 37, 102, 62, 61, 247, 112, 200, 61, 175, 165, 32, 62, 194, 64, 255, 60, 144, 133, 240, 61, 141, 126, 35, 61, 64, 194, 54, 63, 65, 145, 72, 189, 131, 43, 203, 190, 4, 81, 169, 190, 142, 117, 159, 190, 164, 23, 154, 189, 4, 240, 86, 60, 49, 251, 154, 190, 235, 198, 9, 191, 176, 20, 53, 187, 15, 159, 138, 190, 37, 136, 195, 188, 100, 163, 50, 61, 197, 108, 170, 190, 15, 171, 67, 190, 232, 125, 106, 190, 104, 196, 71, 188, 142, 247, 180, 188, 52, 22, 192, 188, 159, 76, 164, 188, 69, 140, 29, 189, 46, 147, 48, 61, 87, 86, 12, 191, 150, 0, 25, 192, 33, 108, 131, 62, 172, 247, 41, 61, 29, 244, 136, 190, 84, 178, 191, 188, 254, 181, 41, 191, 2, 45, 150, 60, 165, 217, 138, 190, 110, 43, 212, 190, 82, 130, 211, 60, 244, 159, 44, 190, 64, 245, 167, 187, 208, 42, 73, 62, 56, 212, 123, 190, 73, 81, 145, 62, 188, 14, 172, 190, 215, 114, 170, 190, 78, 114, 192, 62, 95, 84, 199, 62, 169, 237, 38, 189, 184, 13, 209, 60, 167, 152, 33, 62, 26, 121, 46, 191, 59, 28, 95, 189, 37, 239, 233, 59, 70, 148, 143, 190, 77, 68, 2, 61, 11, 76, 96, 190, 164, 183, 15, 63, 254, 101, 120, 190, 239, 11, 55, 59, 65, 18, 162, 190, 175, 108, 116, 191, 213, 125, 80, 191, 236, 248, 175, 62, 2, 83, 140, 59, 75, 169, 23, 61, 155, 99, 154, 62, 203, 222, 186, 188, 42, 85, 135, 62, 96, 207, 230, 188, 50, 165, 215, 60, 64, 222, 148, 58, 102, 74, 144, 61, 237, 126, 250, 190, 25, 130, 17, 62, 140, 191, 142, 188, 173, 62, 34, 61, 233, 20, 154, 190, 181, 189, 229, 190, 92, 5, 181, 188, 191, 93, 251, 188, 186, 14, 67, 188, 196, 51, 28, 190, 107, 132, 63, 189, 142, 213, 120, 190, 168, 174, 165, 190, 226, 66, 69, 189, 63, 239, 226, 59, 240, 145, 190, 59, 24, 25, 200, 60, 147, 3, 27, 189, 180, 41, 75, 57, 178, 252, 63, 61, 139, 212, 177, 190, 205, 200, 220, 62, 72, 58, 5, 62, 193, 209, 161, 190, 124, 99, 251, 59, 79, 56, 163, 62, 191, 69, 36, 61, 102, 167, 161, 190, 75, 126, 131, 62, 8, 26, 85, 60, 212, 12, 60, 190, 110, 39, 153, 187, 108, 185, 246, 188, 252, 218, 12, 189, 31, 15, 77, 62, 111, 193, 64, 190, 189, 29, 53, 63, 63, 238, 185, 189, 105, 34, 0, 63, 141, 79, 49, 189, 75, 102, 49, 189, 11, 91, 194, 61, 111, 161, 31, 191, 6, 59, 209, 190, 36, 33, 36, 62, 47, 84, 173, 190, 94, 27, 149, 60, 120, 167, 43, 190, 1, 86, 85, 62, 243, 63, 75, 62, 185, 5, 66, 61, 179, 109, 174, 190, 227, 46, 182, 62, 239, 56, 2, 61, 169, 71, 175, 62, 223, 174, 4, 185, 54, 91, 172, 60, 113, 167, 21, 189, 173, 194, 117, 60, 98, 191, 65, 63, 174, 93, 201, 60, 188, 239, 25, 190, 201, 90, 40, 61, 176, 155, 26, 191, 240, 31, 200, 190, 199, 183, 251, 62, 25, 36, 57, 189, 145, 154, 38, 61, 1, 128, 219, 190, 80, 13, 222, 190, 52, 100, 84, 60, 20, 196, 145, 61, 38, 205, 195, 60, 198, 111, 124, 190, 151, 35, 196, 61, 159, 155, 126, 190, 254, 29, 22, 190, 161, 184, 39, 189, 21, 148, 217, 188, 197, 46, 29, 188, 218, 152, 50, 189, 102, 93, 210, 187, 153, 39, 146, 61, 85, 229, 134, 62, 229, 70, 104, 188, 75, 86, 211, 62, 126, 137, 43, 190, 252, 226, 99, 190, 43, 174, 163, 188, 184, 166, 28, 63, 64, 152, 245, 58, 79, 212, 4, 191, 47, 42, 207, 62, 132, 73, 55, 189, 190, 231, 95, 190, 128, 212, 109, 188, 200, 186, 6, 62, 233, 70, 7, 191, 23, 26, 148, 190, 113, 142, 227, 190, 227, 220, 197, 62, 219, 174, 228, 61, 202, 66, 247, 61, 167, 216, 2, 189, 29, 69, 75, 61, 205, 230, 141, 61, 70, 197, 173, 190, 27, 158, 232, 62, 51, 186, 207, 189, 120, 160, 206, 190, 42, 179, 205, 60, 130, 224, 78, 190, 63, 58, 46, 190, 192, 55, 57, 189, 212, 210, 166, 61, 75, 8, 189, 190, 160, 217, 5, 63, 228, 16, 8, 63, 11, 228, 170, 62, 83, 83, 187, 187, 25, 181, 86, 61, 201, 63, 105, 190, 175, 226, 34, 61, 92, 227, 93, 63, 220, 224, 155, 60, 242, 202, 60, 62, 136, 27, 144, 59, 71, 225, 93, 191, 144, 60, 25, 189, 249, 83, 90, 60, 102, 189, 213, 188, 132, 12, 66, 60, 222, 160, 10, 191, 147, 240, 5, 191, 234, 107, 254, 60, 4, 46, 224, 61, 235, 204, 169, 59, 146, 92, 135, 190, 229, 29, 63, 61, 199, 163, 103, 190, 5, 110, 149, 190, 31, 61, 120, 188, 127, 144, 165, 188, 19, 59, 81, 188, 114, 177, 83, 189, 238, 181, 246, 187, 228, 225, 150, 61, 2, 55, 54, 62, 190, 144, 53, 62, 91, 225, 248, 61, 86, 99, 220, 190, 140, 73, 252, 190, 22, 193, 116, 187, 175, 75, 177, 62, 138, 111, 126, 188, 108, 193, 23, 191, 149, 49, 16, 190, 208, 251, 107, 59, 14, 31, 154, 190, 252, 251, 13, 188, 119, 123, 6, 63, 184, 48, 155, 190, 187, 107, 14, 190, 237, 0, 201, 190, 254, 108, 163, 190, 91, 72, 46, 189, 242, 66, 100, 190, 56, 185, 38, 61, 239, 231, 181, 62, 61, 170, 10, 190, 23, 103, 92, 191, 190, 52, 140, 190, 138, 224, 227, 190, 196, 128, 7, 191, 162, 156, 157, 60, 178, 55, 138, 190, 249, 252, 93, 189, 108, 77, 63, 62, 138, 222, 129, 62, 114, 162, 244, 190, 188, 14, 14, 62, 228, 173, 211, 188, 53, 161, 155, 62, 125, 174, 52, 188, 202, 105, 153, 61, 228, 16, 24, 62, 146, 109, 208, 60, 45, 134, 49, 63, 144, 173, 231, 60, 242, 239, 55, 62, 104, 186, 164, 188, 218, 251, 157, 191, 3, 251, 220, 190, 200, 81, 129, 190, 77, 251, 143, 188, 159, 244, 35, 61, 146, 103, 202, 190, 83, 44, 41, 191, 90, 185, 25, 189, 157, 16, 73, 190, 64, 217, 96, 188, 198, 214, 181, 190, 14, 5, 244, 190, 223, 191, 214, 190, 200, 236, 126, 191, 159, 245, 244, 60, 250, 13, 123, 188, 0, 237, 184, 188, 45, 91, 141, 60, 41, 149, 83, 189, 179, 38, 144, 61, 159, 29, 66, 62, 115, 209, 55, 190, 27, 164, 229, 60, 31, 190, 163, 190, 20, 84, 191, 190, 197, 138, 173, 59, 102, 143, 227, 190, 77, 17, 30, 61, 32, 29, 18, 191, 237, 101, 131, 190, 128, 128, 205, 59, 150, 252, 123, 190, 185, 207, 75, 189, 152, 233, 197, 62, 151, 196, 167, 190, 118, 86, 238, 189, 125, 25, 220, 190, 127, 126, 140, 61, 15, 53, 235, 189, 110, 10, 180, 189, 160, 109, 24, 189, 158, 16, 115, 62, 41, 79, 166, 190, 173, 13, 129, 60, 227, 164, 81, 188, 43, 11, 112, 190, 161, 232, 4, 191, 112, 242, 131, 188, 47, 220, 86, 190, 139, 197, 22, 189, 217, 169, 138, 190, 242, 251, 145, 62, 26, 249, 151, 190, 34, 98, 16, 191, 225, 79, 60, 191, 31, 207, 67, 61, 123, 67, 254, 187, 133, 187, 172, 61, 64, 79, 147, 62, 64, 133, 84, 60, 16, 131, 196, 62, 160, 30, 240, 59, 83, 144, 27, 62, 128, 249, 230, 57, 79, 240, 150, 191, 73, 47, 249, 190, 99, 228, 14, 191, 79, 72, 233, 188, 144, 142, 8, 60, 211, 119, 223, 190, 197, 252, 40, 191, 72, 228, 3, 60, 35, 141, 164, 190, 222, 63, 131, 60, 238, 233, 157, 190, 221, 42, 38, 190, 18, 233, 102, 190, 108, 77, 110, 191, 61, 22, 177, 60, 34, 33, 22, 188, 150, 191, 247, 60, 193, 21, 28, 61, 48, 190, 93, 60, 83, 47, 112, 61, 1, 178, 198, 62, 58, 213, 178, 189, 51, 26, 23, 189, 65, 35, 159, 190, 235, 203, 254, 190, 104, 240, 156, 57, 46, 247, 116, 191, 238, 200, 150, 60, 59, 55, 192, 190, 230, 198, 112, 189, 204, 229, 56, 189, 77, 122, 135, 190, 178, 41, 25, 189, 49, 28, 109, 61, 56, 137, 156, 190, 80, 192, 42, 190, 133, 102, 51, 191, 81, 199, 150, 189, 92, 223, 195, 189, 206, 126, 20, 190, 33, 7, 180, 188, 143, 229, 18, 63, 204, 156, 169, 190, 250, 114, 133, 190, 152, 85, 42, 188, 195, 73, 56, 190, 216, 251, 190, 190, 224, 142, 180, 186, 70, 186, 119, 190, 242, 22, 18, 190, 207, 127, 161, 190, 12, 105, 98, 62, 14, 3, 244, 190, 163, 26, 181, 190, 100, 243, 55, 191, 62, 189, 12, 190, 85, 95, 183, 60, 63, 222, 81, 61, 229, 147, 37, 62, 1, 64, 11, 60, 132, 247, 237, 62, 209, 207, 154, 188, 197, 215, 195, 190, 211, 94, 6, 60, 1, 225, 53, 191, 167, 61, 90, 191, 177, 128, 45, 62, 164, 39, 169, 59, 14, 94, 217, 60, 130, 135, 202, 190, 120, 7, 37, 191, 57, 4, 36, 61, 164, 180, 204, 190, 134, 206, 141, 60, 246, 67, 153, 190, 40, 15, 56, 190, 139, 41, 241, 190, 242, 17, 87, 191, 32, 104, 57, 59, 115, 194, 105, 187, 221, 251, 32, 58, 47, 17, 90, 188, 194, 128, 180, 60, 224, 108, 61, 61, 3, 108, 35, 60, 170, 219, 141, 190, 96, 254, 161, 58, 229, 107, 178, 190, 112, 247, 108, 191, 57, 107, 15, 61, 25, 158, 153, 191, 175, 10, 203, 188, 73, 255, 210, 190, 70, 82, 119, 191, 240, 244, 161, 187, 43, 249, 48, 190, 115, 10, 155, 188, 29, 198, 166, 190, 65, 218, 152, 190, 187, 86, 252, 189, 169, 159, 103, 191, 76, 89, 154, 189, 65, 21, 71, 191, 185, 234, 6, 62, 182, 249, 203, 60, 59, 211, 136, 61, 230, 122, 43, 191, 155, 135, 254, 190, 83, 188, 190, 60, 180, 189, 87, 190, 219, 157, 213, 189, 184, 148, 199, 60, 135, 219, 46, 190, 197, 176, 162, 62, 89, 129, 33, 191, 223, 43, 114, 62, 146, 155, 142, 191, 174, 136, 234, 190, 185, 182, 255, 190, 186, 121, 202, 190, 113, 199, 175, 60, 44, 6, 144, 61, 44, 229, 74, 62, 229, 116, 43, 61, 247, 81, 80, 62, 205, 2, 197, 60, 169, 249, 76, 190, 64, 36, 83, 58, 154, 96, 93, 190, 152, 247, 50, 190, 128, 114, 19, 63, 135, 76, 32, 189, 48, 166, 143, 187, 87, 130, 158, 190, 6, 202, 245, 190, 62, 9, 138, 60, 117, 126, 197, 190, 102, 84, 6, 189, 69, 156, 145, 190, 39, 246, 158, 190, 153, 38, 129, 191, 110, 47, 69, 191, 230, 103, 154, 60, 8, 35, 229, 188, 7, 163, 106, 60, 175, 132, 184, 60, 16, 131, 34, 185, 109, 79, 72, 60, 124, 52, 245, 189, 71, 166, 3, 191, 72, 98, 76, 189, 18, 240, 193, 190, 51, 14, 143, 191, 68, 103, 24, 189, 85, 184, 121, 191, 178, 231, 161, 60, 27, 106, 102, 191, 222, 39, 150, 61, 108, 26, 255, 188, 41, 16, 15, 190, 58, 137, 44, 189, 185, 190, 153, 190, 128, 174, 95, 190, 69, 136, 220, 189, 152, 118, 46, 191, 2, 165, 109, 189, 57, 48, 235, 190, 84, 87, 133, 60, 130, 22, 144, 60, 154, 184, 24, 61, 33, 210, 47, 191, 178, 168, 93, 190, 106, 66, 165, 188, 114, 145, 232, 189, 96, 170, 178, 190, 36, 159, 224, 60, 24, 69, 117, 190, 241, 240, 138, 189, 120, 146, 4, 191, 191, 185, 60, 62, 99, 247, 166, 191, 238, 168, 172, 190, 31, 91, 164, 190, 202, 83, 217, 190, 93, 161, 70, 189, 243, 9, 103, 61, 180, 253, 236, 62, 210, 156, 22, 188, 15, 59, 204, 61, 172, 124, 14, 61, 75, 119, 76, 190, 254, 223, 235, 188, 127, 254, 18, 62, 34, 97, 192, 191, 3, 221, 70, 191, 73, 84, 185, 189, 12, 214, 130, 188, 114, 235, 145, 190, 246, 183, 32, 191, 42, 31, 131, 188, 153, 57, 12, 191, 144, 7, 57, 59, 184, 196, 133, 190, 183, 206, 123, 190, 152, 0, 132, 191, 227, 93, 107, 191, 224, 174, 133, 60, 243, 59, 181, 59, 12, 144, 193, 187, 67, 142, 43, 61, 159, 196, 156, 59, 129, 116, 213, 59, 33, 151, 138, 190, 60, 69, 65, 62, 89, 212, 139, 59, 146, 109, 147, 190, 110, 37, 206, 191, 157, 16, 210, 188, 154, 176, 133, 191, 227, 42, 186, 188, 153, 240, 89, 191, 217, 171, 36, 63, 114, 117, 15, 60, 204, 105, 223, 189, 44, 10, 81, 188, 171, 92, 97, 62, 251, 252, 142, 190, 74, 180, 49, 190, 0, 254, 67, 62, 175, 45, 202, 189, 240, 200, 5, 191, 114, 164, 29, 190, 55, 254, 174, 188, 178, 147, 194, 62, 85, 84, 71, 191, 214, 219, 9, 62, 187, 99, 139, 189, 43, 31, 37, 190, 140, 159, 38, 190, 9, 91, 23, 61, 24, 70, 106, 190, 227, 94, 15, 190, 68, 74, 18, 191, 86, 21, 127, 189, 31, 190, 78, 60, 136, 236, 1, 191, 217, 210, 11, 191, 196, 16, 12, 191, 194, 29, 33, 189, 125, 55, 8, 61, 241, 8, 43, 63, 87, 128, 59, 60, 240, 90, 78, 63, 39, 36, 19, 61, 168, 5, 44, 191, 193, 92, 6, 61, 31, 157, 202, 190, 159, 80, 7, 62, 125, 21, 231, 61, 70, 101, 36, 189, 82, 77, 219, 60, 35, 215, 195, 190, 125, 179, 92, 191, 117, 184, 16, 61, 234, 189, 48, 191, 231, 226, 23, 61, 154, 231, 213, 190, 68, 72, 53, 190, 127, 68, 92, 60, 190, 118, 166, 191, 187, 46, 103, 60, 71, 104, 90, 61, 246, 109, 136, 61, 72, 100, 42, 61, 127, 201, 134, 189, 136, 214, 154, 61, 45, 95, 86, 191, 52, 90, 195, 189, 222, 91, 239, 60, 201, 19, 137, 190, 234, 142, 115, 191, 64, 247, 51, 188, 159, 145, 160, 191, 232, 126, 120, 60, 255, 145, 45, 191, 200, 246, 53, 62, 2, 153, 178, 188, 236, 119, 93, 190, 93, 215, 3, 58, 34, 71, 161, 189, 51, 233, 248, 190, 163, 162, 131, 190, 248, 131, 207, 61, 176, 1, 239, 189, 28, 39, 236, 190, 150, 169, 230, 189, 17, 71, 16, 189, 165, 155, 10, 191, 187, 210, 218, 189, 29, 182, 83, 190, 198, 211, 252, 188, 107, 1, 44, 190, 171, 65, 136, 188, 163, 171, 196, 188, 180, 246, 149, 190, 93, 105, 101, 190, 119, 14, 172, 189, 109, 159, 38, 190, 33, 107, 114, 59, 18, 140, 149, 190, 211, 142, 210, 189, 118, 11, 231, 190, 156, 214, 183, 186, 148, 228, 99, 60, 103, 62, 3, 63, 223, 84, 32, 61, 177, 214, 32, 63, 57, 226, 57, 59, 158, 228, 132, 190, 51, 72, 1, 189, 85, 5, 43, 190, 196, 170, 78, 191, 143, 143, 60, 191, 136, 207, 63, 189, 136, 26, 212, 188, 185, 116, 96, 190, 161, 191, 54, 191, 78, 246, 152, 188, 41, 56, 64, 191, 125, 245, 17, 61, 76, 151, 21, 191, 41, 201, 136, 190, 109, 248, 136, 190, 249, 6, 73, 191, 107, 164, 142, 188, 119, 174, 23, 189, 104, 24, 132, 59, 234, 53, 158, 187, 217, 68, 1, 60, 227, 133, 34, 61, 232, 5, 236, 190, 123, 67, 96, 190, 9, 220, 78, 189, 42, 184, 15, 191, 23, 27, 137, 191, 81, 141, 55, 189, 123, 167, 206, 191, 5, 158, 34, 189, 55, 216, 148, 191, 66, 69, 36, 190, 122, 204, 128, 187, 224, 87, 4, 190, 50, 196, 80, 189, 33, 111, 47, 62, 94, 176, 37, 191, 182, 37, 39, 190, 174, 31, 36, 190, 18, 204, 159, 190, 153, 3, 56, 190, 39, 147, 186, 190, 154, 29, 99, 188, 177, 128, 54, 191, 217, 164, 51, 191, 253, 179, 43, 190, 119, 209, 60, 189, 46, 233, 156, 190, 65, 252, 162, 189, 54, 229, 56, 189, 102, 51, 191, 190, 45, 254, 90, 190, 53, 209, 49, 191, 125, 36, 49, 190, 47, 28, 77, 191, 204, 4, 53, 191, 187, 168, 89, 191, 187, 53, 51, 190, 56, 8, 250, 188, 0, 242, 199, 61, 179, 169, 115, 62, 166, 123, 122, 188, 58, 153, 193, 188, 15, 3, 30, 60, 70, 200, 1, 191, 226, 223, 207, 60, 78, 61, 90, 190, 95, 60, 30, 191, 148, 146, 230, 188, 231, 54, 137, 189, 64, 225, 214, 187, 36, 239, 165, 189, 120, 91, 76, 190, 79, 53, 10, 61, 83, 134, 143, 190, 54, 246, 254, 188, 116, 144, 53, 191, 100, 47, 23, 191, 48, 112, 82, 191, 219, 165, 251, 190, 175, 90, 41, 61, 4, 45, 247, 60, 75, 51, 64, 61, 141, 53, 28, 60, 127, 23, 116, 189, 239, 39, 235, 59, 146, 20, 119, 62, 170, 193, 167, 189, 72, 82, 128, 188, 40, 152, 34, 191, 196, 7, 20, 191, 71, 163, 86, 189, 58, 213, 113, 191, 15, 236, 14, 61, 72, 0, 82, 191, 68, 220, 47, 190, 52, 64, 27, 61, 92, 133, 108, 189, 179, 153, 229, 60, 246, 142, 123, 62, 16, 233, 2, 191, 140, 153, 80, 190, 72, 96, 23, 191, 232, 214, 161, 190, 18, 3, 214, 190, 100, 38, 157, 190, 142, 162, 96, 188, 159, 231, 111, 191, 234, 160, 188, 191, 15, 110, 46, 190, 36, 88, 146, 189, 189, 197, 168, 190, 252, 151, 60, 190, 112, 250, 40, 189, 202, 53, 219, 190, 255, 130, 121, 190, 9, 122, 198, 191, 7, 247, 28, 190, 59, 83, 79, 191, 244, 217, 14, 192, 229, 11, 15, 192, 215, 171, 38, 191, 5, 110, 111, 188, 11, 171, 158, 60, 142, 249, 246, 61, 89, 65, 223, 60, 204, 57, 173, 190, 155, 87, 42, 189, 245, 10, 84, 191, 66, 32, 243, 60, 176, 208, 73, 190, 164, 10, 30, 58, 152, 99, 89, 191, 58, 186, 104, 189, 152, 25, 19, 60, 130, 99, 88, 190, 146, 89, 43, 191, 224, 181, 11, 59, 224, 173, 241, 190, 229, 94, 10, 189, 199, 197, 15, 191, 136, 54, 60, 191, 42, 177, 90, 191, 229, 102, 0, 62, 121, 211, 116, 188, 204, 34, 65, 189, 136, 83, 161, 59, 74, 92, 156, 189, 68, 123, 56, 60, 229, 215, 43, 61, 202, 72, 4, 190, 20, 121, 231, 190, 18, 163, 76, 189, 89, 64, 4, 191, 50, 119, 27, 191, 115, 60, 83, 188, 16, 62, 251, 60, 9, 240, 46, 61, 224, 173, 151, 191, 191, 98, 91, 191, 4, 182, 177, 58, 246, 124, 0, 190, 148, 77, 228, 188, 71, 148, 98, 62, 231, 179, 252, 190, 79, 145, 106, 190, 221, 46, 131, 191, 41, 153, 93, 61, 52, 152, 126, 190, 176, 53, 172, 190, 1, 181, 103, 188, 67, 34, 131, 191, 156, 112, 197, 62, 110, 137, 131, 190, 9, 255, 185, 190, 138, 250, 203, 190, 172, 78, 183, 190, 121, 88, 64, 60, 72, 131, 185, 190, 122, 93, 112, 190, 90, 212, 149, 191, 119, 15, 155, 189, 107, 135, 205, 191, 104, 28, 2, 190, 37, 96, 83, 191, 229, 222, 77, 191, 149, 196, 86, 189, 207, 252, 94, 61, 81, 40, 63, 191, 157, 84, 36, 189, 198, 220, 180, 191, 231, 10, 118, 60, 243, 114, 120, 190, 34, 124, 129, 187, 107, 73, 152, 62, 193, 147, 146, 191, 136, 84, 29, 191, 112, 156, 125, 187, 142, 182, 199, 60, 39, 13, 18, 190, 127, 223, 251, 190, 128, 235, 237, 59, 129, 129, 71, 63, 51, 99, 255, 188, 146, 151, 49, 191, 180, 149, 20, 191, 71, 217, 211, 191, 170, 45, 181, 62, 216, 129, 84, 188, 202, 236, 6, 61, 198, 212, 131, 61, 33, 75, 13, 189, 167, 246, 184, 189, 34, 210, 56, 60, 28, 42, 241, 190, 249, 57, 1, 191, 129, 253, 6, 61, 206, 222, 8, 191, 2, 66, 231, 191, 241, 119, 132, 189, 214, 169, 94, 191, 126, 107, 169, 60, 48, 222, 24, 191, 152, 178, 87, 191, 223, 191, 85, 60, 111, 248, 57, 190, 20, 113, 201, 188, 65, 40, 108, 62, 89, 219, 52, 191, 197, 208, 32, 190, 160, 59, 96, 191, 107, 249, 42, 191, 247, 32, 191, 62, 148, 9, 63, 190, 112, 255, 255, 188, 80, 2, 35, 191, 62, 5, 170, 191, 191, 221, 195, 189, 233, 129, 162, 190, 187, 250, 2, 191, 146, 248, 91, 190, 46, 218, 137, 60, 152, 191, 205, 190, 37, 254, 117, 190, 191, 67, 185, 191, 78, 85, 34, 190, 34, 245, 187, 191, 59, 181, 148, 191, 244, 68, 142, 191, 174, 52, 21, 191, 47, 34, 209, 188, 13, 156, 151, 60, 112, 103, 109, 62, 96, 42, 15, 188, 37, 150, 166, 191, 67, 255, 103, 60, 244, 35, 17, 62, 61, 37, 24, 61, 92, 226, 34, 63, 212, 216, 141, 191, 99, 122, 149, 191, 67, 216, 185, 189, 192, 189, 128, 186, 1, 228, 237, 62, 51, 62, 128, 191, 194, 26, 136, 60, 188, 117, 14, 191, 40, 105, 17, 61, 77, 130, 112, 191, 188, 217, 88, 191, 233, 165, 220, 191, 35, 197, 94, 61, 2, 144, 1, 61, 255, 90, 246, 60, 188, 108, 155, 187, 48, 35, 59, 189, 136, 61, 68, 189, 24, 151, 141, 184, 251, 114, 68, 191, 193, 104, 74, 61, 9, 72, 18, 189, 61, 71, 28, 191, 177, 84, 186, 191, 237, 43, 121, 188, 208, 2, 106, 191, 144, 165, 98, 60, 181, 23, 37, 190, 55, 81, 165, 191, 156, 57, 210, 188, 42, 251, 113, 190, 226, 6, 26, 60, 188, 39, 140, 58, 169, 35, 73, 191, 74, 26, 121, 190, 125, 180, 193, 190, 108, 16, 67, 191, 206, 15, 201, 62, 154, 223, 119, 190, 98, 101, 154, 60, 59, 18, 33, 191, 144, 16, 208, 191, 36, 161, 211, 61, 240, 110, 31, 190, 123, 21, 9, 191, 0, 96, 235, 190, 238, 243, 247, 187, 234, 248, 123, 190, 25, 153, 164, 191, 23, 205, 94, 191, 31, 134, 205, 190, 122, 238, 45, 191, 38, 66, 188, 191, 65, 72, 161, 191, 231, 251, 33, 191, 163, 133, 15, 189, 27, 83, 100, 61, 154, 104, 208, 60, 81, 86, 144, 59, 160, 240, 132, 191, 114, 216, 11, 61, 207, 98, 184, 188, 238, 124, 17, 189, 247, 55, 62, 62, 156, 220, 52, 191, 237, 89, 0, 63, 188, 142, 141, 189, 140, 189, 206, 188, 60, 141, 154, 187, 87, 11, 228, 190, 13, 76, 42, 61, 168, 55, 42, 191, 12, 147, 126, 61, 123, 98, 147, 191, 69, 200, 166, 191, 225, 30, 57, 191, 132, 255, 146, 190, 42, 5, 43, 61, 99, 199, 24, 60, 235, 49, 58, 61, 123, 156, 58, 189, 204, 113, 178, 189, 73, 34, 215, 187, 106, 15, 135, 191, 204, 150, 239, 190, 38, 3, 120, 61, 189, 200, 59, 191, 159, 95, 1, 191, 160, 9, 19, 60, 54, 89, 143, 63, 44, 71, 31, 189, 180, 120, 62, 190, 162, 211, 35, 191, 203, 109, 133, 188, 74, 223, 53, 190, 205, 138, 31, 61, 125, 0, 199, 189, 188, 140, 112, 191, 99, 224, 36, 62, 198, 195, 31, 60, 62, 127, 154, 191, 69, 106, 205, 189, 80, 254, 107, 191, 124, 46, 58, 189, 228, 42, 152, 62, 206, 100, 82, 191, 131, 137, 1, 191, 218, 148, 109, 190, 56, 240, 32, 191, 151, 134, 154, 190, 142, 255, 159, 60, 83, 191, 149, 60, 73, 5, 196, 191, 187, 5, 185, 191, 39, 42, 223, 190, 39, 98, 216, 190, 165, 111, 41, 191, 64, 252, 30, 62, 210, 76, 33, 191, 238, 172, 183, 189, 97, 103, 39, 61, 221, 44, 39, 190, 151, 99, 10, 61, 33, 95, 7, 190, 131, 202, 17, 189, 244, 204, 11, 189, 224, 133, 147, 59, 61, 82, 234, 187, 132, 215, 175, 191, 144, 77, 36, 63, 227, 184, 13, 189, 231, 171, 32, 189, 184, 232, 57, 190, 200, 115, 41, 191, 164, 156, 200, 188, 67, 73, 48, 191, 94, 114, 212, 61, 107, 245, 127, 191, 172, 91, 98, 191, 214, 82, 60, 191, 193, 237, 4, 62, 165, 20, 16, 189, 83, 194, 149, 188, 189, 158, 155, 60, 188, 61, 207, 189, 40, 24, 181, 185, 147, 126, 17, 188, 251, 201, 20, 191, 138, 233, 151, 191, 107, 232, 84, 61, 196, 113, 47, 190, 73, 89, 201, 190, 230, 231, 147, 189, 85, 80, 78, 63, 214, 161, 18, 189, 158, 203, 39, 191, 165, 217, 223, 190, 168, 206, 186, 60, 21, 102, 216, 189, 80, 12, 29, 187, 185, 243, 167, 62, 116, 28, 162, 191, 222, 191, 132, 62, 139, 236, 201, 61, 73, 232, 56, 190, 201, 210, 102, 189, 131, 4, 12, 191, 165, 144, 30, 61, 87, 64, 80, 63, 35, 101, 26, 63, 34, 98, 138, 190, 175, 109, 82, 190, 240, 23, 135, 191, 198, 137, 87, 190, 3, 89, 52, 189, 59, 14, 76, 61, 105, 118, 132, 191, 118, 17, 160, 191, 123, 249, 150, 60, 221, 233, 191, 190, 108, 85, 137, 190, 144, 40, 126, 191, 70, 79, 211, 190, 177, 182, 162, 189, 214, 10, 75, 61, 242, 121, 187, 62, 174, 146, 216, 59, 56, 177, 113, 62, 232, 69, 158, 188, 147, 217, 160, 62, 23, 198, 200, 188, 146, 178, 65, 62, 125, 135, 158, 190, 177, 216, 71, 191, 136, 27, 139, 189, 80, 211, 30, 187, 67, 203, 213, 190, 51, 233, 34, 191, 254, 21, 23, 189, 81, 65, 16, 63, 191, 178, 62, 189, 42, 91, 148, 191, 27, 54, 22, 191, 23, 152, 199, 190, 110, 22, 207, 61, 100, 181, 195, 60, 226, 108, 5, 188, 218, 54, 85, 61, 86, 207, 96, 188, 195, 183, 93, 189, 21, 5, 70, 60, 64, 116, 102, 190, 246, 130, 92, 191, 178, 161, 226, 188, 85, 220, 20, 189, 171, 57, 45, 62, 65, 126, 171, 188, 90, 131, 218, 62, 24, 174, 18, 188, 211, 51, 158, 62, 197, 126, 66, 191, 215, 238, 217, 187, 25, 218, 143, 189, 104, 42, 200, 60, 193, 13, 217, 62, 116, 137, 201, 191, 111, 136, 210, 62, 15, 102, 99, 62, 152, 222, 164, 191, 175, 235, 180, 188, 77, 156, 158, 61, 178, 163, 206, 60, 205, 229, 240, 62, 29, 69, 81, 63, 27, 159, 56, 62, 98, 68, 171, 190, 154, 165, 214, 191, 51, 120, 185, 190, 166, 142, 243, 60, 224, 158, 141, 60, 202, 248, 156, 62, 141, 8, 203, 60, 148, 135, 149, 190, 45, 75, 194, 62, 63, 81, 186, 59, 38, 95, 48, 191, 159, 190, 197, 190, 117, 142, 205, 189, 17, 230, 175, 186, 121, 99, 222, 62, 68, 20, 88, 189, 62, 3, 48, 189, 202, 176, 185, 188, 65, 134, 198, 60, 100, 199, 104, 188, 229, 205, 111, 62, 93, 26, 114, 61, 237, 78, 40, 191, 144, 5, 152, 189, 0, 13, 93, 186, 208, 136, 243, 60, 242, 149, 167, 191, 16, 58, 70, 188, 4, 193, 94, 189, 24, 83, 13, 58, 234, 113, 88, 191, 116, 248, 27, 191, 88, 213, 143, 62, 68, 178, 135, 62, 103, 22, 209, 188, 229, 167, 74, 61, 84, 26, 117, 188, 64, 148, 33, 188, 121, 4, 168, 61, 223, 150, 60, 61, 69, 68, 2, 191, 182, 179, 86, 191, 144, 218, 131, 62, 173, 28, 62, 190, 63, 167, 42, 62, 236, 228, 53, 189, 140, 82, 72, 62, 118, 199, 181, 188, 132, 149, 141, 62, 5, 16, 148, 191, 13, 51, 69, 188, 25, 176, 9, 61, 70, 85, 82, 189, 244, 144, 163, 62, 131, 94, 21, 191, 94, 106, 0, 63, 235, 91, 236, 62, 153, 78, 78, 191, 71, 222, 105, 190, 39, 43, 190, 62, 138, 240, 136, 188, 207, 188, 155, 63, 49, 188, 162, 191, 16, 80, 227, 190, 141, 9, 233, 190, 97, 115, 245, 191, 80, 78, 46, 191, 59, 63, 34, 189, 70, 62, 23, 62, 68, 113, 5, 190, 137, 216, 132, 190, 160, 239, 241, 190, 176, 27, 117, 63, 3, 203, 130, 191, 243, 122, 44, 191, 128, 160, 26, 191, 57, 69, 115, 60, 134, 13, 158, 60, 162, 34, 16, 62, 16, 232, 32, 188, 22, 13, 205, 62, 33, 37, 4, 189, 72, 87, 134, 61, 28, 96, 42, 60, 116, 86, 201, 190, 217, 129, 163, 62, 76, 161, 145, 190, 45, 98, 224, 188, 201, 238, 59, 189, 50, 34, 253, 60, 12, 255, 178, 190, 198, 46, 161, 60, 60, 194, 105, 191, 2, 94, 47, 63, 25, 7, 143, 190, 66, 58, 19, 192, 25, 30, 227, 62, 238, 226, 243, 61, 46, 203, 45, 61, 113, 133, 125, 188, 214, 186, 42, 60, 173, 249, 162, 189, 186, 14, 50, 60, 133, 184, 216, 186, 69, 161, 121, 190, 216, 86, 168, 190, 219, 177, 192, 62, 195, 242, 119, 190, 158, 213, 54, 62, 47, 111, 145, 60, 118, 128, 5, 63, 185, 165, 170, 188, 230, 136, 9, 191, 223, 156, 218, 190, 71, 203, 52, 188, 42, 38, 14, 190, 251, 71, 16, 61, 123, 163, 175, 62, 112, 7, 254, 190, 239, 27, 1, 63, 83, 70, 55, 191, 147, 67, 254, 190, 96, 255, 5, 190, 114, 197, 230, 62, 155, 137, 5, 61, 247, 49, 56, 62, 202, 12, 99, 63, 158, 24, 5, 62, 160, 89, 215, 190, 174, 56, 40, 191, 204, 146, 2, 191, 218, 216, 251, 60, 86, 241, 222, 190, 76, 73, 135, 62, 243, 105, 56, 62, 106, 97, 83, 191, 45, 191, 7, 191, 118, 107, 46, 63, 17, 93, 38, 189, 242, 83, 36, 191, 27, 75, 26, 190, 27, 231, 116, 60, 94, 31, 117, 62, 101, 243, 249, 60, 22, 123, 136, 60, 17, 14, 22, 189, 232, 34, 1, 63, 108, 156, 16, 189, 201, 189, 26, 191, 193, 199, 121, 190, 98, 56, 104, 191, 102, 54, 158, 189, 125, 252, 150, 188, 140, 219, 54, 190, 104, 86, 78, 61, 13, 148, 203, 188, 16, 137, 43, 63, 178, 77, 178, 62, 36, 169, 49, 191, 61, 87, 76, 190, 232, 52, 128, 190, 118, 241, 182, 62, 207, 173, 160, 189, 82, 35, 87, 61, 136, 45, 7, 61, 131, 159, 48, 189, 244, 199, 204, 188, 27, 205, 70, 61, 4, 43, 210, 190, 16, 227, 176, 190, 49, 236, 158, 62, 200, 110, 130, 190, 93, 22, 119, 62, 46, 208, 178, 59, 102, 199, 130, 63, 157, 218, 39, 189, 151, 58, 70, 191, 130, 6, 140, 62, 111, 82, 69, 189, 203, 88, 189, 190, 15, 153, 233, 60, 69, 78, 97, 62, 218, 36, 59, 191, 4, 156, 143, 62, 233, 25, 143, 191, 60, 148, 21, 191, 72, 169, 72, 190, 249, 51, 171, 61, 88, 69, 45, 188, 191, 215, 100, 63, 15, 50, 0, 63, 14, 53, 220, 62, 166, 226, 3, 62, 98, 85, 40, 192, 60, 140, 193, 190, 152, 10, 243, 187, 128, 105, 202, 191, 209, 115, 4, 190, 99, 186, 19, 63, 164, 107, 75, 191, 5, 74, 234, 191, 39, 192, 230, 62, 246, 115, 8, 63, 196, 199, 25, 191, 116, 57, 97, 190, 48, 186, 217, 188, 95, 102, 128, 190, 196, 202, 11, 189, 64, 160, 87, 62, 58, 201, 178, 187, 163, 37, 201, 59, 50, 233, 24, 189, 20, 175, 37, 190, 142, 37, 92, 191, 6, 208, 57, 190, 39, 86, 74, 188, 90, 36, 176, 60, 222, 216, 22, 190, 120, 186, 47, 191, 213, 16, 3, 189, 70, 193, 209, 62, 216, 66, 131, 62, 130, 216, 90, 191, 33, 178, 177, 191, 206, 84, 17, 192, 45, 151, 233, 62, 202, 79, 112, 189, 193, 18, 200, 187, 122, 60, 183, 60, 107, 143, 254, 188, 244, 205, 66, 189, 48, 225, 104, 61, 97, 199, 246, 190, 24, 120, 15, 63, 145, 188, 155, 62, 188, 238, 148, 190, 183, 237, 44, 191, 229, 235, 143, 188, 254, 72, 62, 191, 47, 111, 3, 61, 150, 192, 27, 61, 105, 59, 47, 190, 31, 99, 78, 189, 174, 155, 178, 190, 54, 225, 20, 61, 193, 187, 160, 61, 106, 102, 134, 191, 236, 254, 52, 61, 116, 74, 5, 62, 101, 251, 196, 62, 193, 34, 170, 190, 71, 223, 67, 62, 254, 121, 117, 187, 84, 131, 113, 63, 74, 56, 83, 191, 190, 99, 29, 62, 72, 114, 169, 61, 86, 124, 19, 192, 184, 97, 236, 189, 208, 182, 23, 187, 116, 16, 226, 191, 207, 89, 135, 61, 155, 12, 240, 61, 97, 60, 165, 190, 55, 230, 119, 188, 216, 3, 68, 191, 97, 87, 142, 190, 188, 63, 243, 190, 85, 206, 110, 190, 217, 236, 45, 189, 117, 160, 37, 61, 42, 195, 55, 189, 69, 125, 216, 62, 38, 165, 32, 189, 96, 81, 154, 62, 67, 87, 19, 61, 12, 212, 17, 62, 255, 112, 115, 191, 181, 181, 181, 62, 70, 45, 156, 188, 27, 239, 40, 189, 18, 247, 129, 62, 33, 66, 103, 191, 127, 171, 33, 61, 221, 6, 101, 191, 229, 50, 218, 62, 76, 189, 159, 191, 54, 106, 69, 192, 230, 3, 152, 187, 180, 16, 119, 189, 198, 21, 86, 189, 58, 40, 145, 59, 62, 11, 56, 61, 74, 120, 80, 187, 181, 223, 137, 189, 12, 209, 174, 188, 144, 92, 62, 62, 11, 31, 72, 191, 182, 123, 246, 61, 143, 37, 246, 190, 249, 126, 62, 61, 36, 115, 88, 189, 202, 243, 176, 190, 81, 124, 5, 61, 82, 182, 0, 63, 109, 240, 169, 190, 114, 12, 138, 60, 117, 44, 147, 190, 61, 235, 112, 188, 85, 117, 135, 62, 124, 51, 195, 190, 161, 10, 2, 62, 45, 154, 160, 190, 111, 242, 49, 189, 58, 150, 130, 190, 18, 143, 26, 63, 246, 24, 29, 187, 229, 140, 153, 62, 230, 176, 69, 190, 181, 131, 147, 187, 185, 93, 38, 188, 221, 117, 5, 192, 85, 30, 64, 189, 68, 183, 38, 188, 240, 134, 166, 191, 208, 212, 137, 188, 182, 165, 14, 191, 57, 19, 232, 61, 77, 96, 149, 62, 159, 124, 234, 191, 229, 13, 155, 62, 122, 139, 250, 190, 192, 169, 122, 190, 247, 178, 23, 61, 49, 13, 135, 190, 237, 28, 87, 189, 58, 5, 1, 61, 251, 45, 19, 60, 130, 53, 34, 63, 6, 157, 158, 60, 181, 40, 204, 190, 107, 5, 65, 61, 204, 45, 16, 190, 157, 3, 42, 189, 24, 42, 48, 189, 94, 5, 198, 60, 23, 124, 82, 62, 214, 176, 244, 60, 227, 132, 99, 190, 160, 128, 112, 62, 251, 129, 119, 190, 65, 7, 235, 191, 161, 69, 140, 190, 127, 8, 98, 62, 54, 100, 49, 62, 124, 114, 34, 189, 56, 142, 70, 61, 29, 250, 152, 60, 20, 4, 135, 188, 122, 99, 40, 61, 220, 172, 22, 62, 119, 213, 25, 63, 93, 122, 126, 62, 49, 13, 53, 189, 96, 23, 11, 62, 96, 169, 221, 189, 125, 157, 100, 62, 231, 43, 32, 189, 229, 197, 183, 190, 176, 24, 164, 190, 214, 58, 163, 60, 135, 136, 156, 190, 66, 30, 10, 60, 253, 111, 79, 61, 196, 68, 52, 61, 217, 190, 4, 189, 203, 66, 5, 191, 75, 163, 25, 190, 199, 207, 88, 190, 62, 203, 138, 62, 235, 55, 19, 61, 5, 240, 136, 62, 117, 2, 14, 63, 132, 190, 1, 63, 251, 46, 87, 190, 57, 34, 193, 191, 45, 110, 248, 188, 0, 110, 192, 188, 235, 36, 66, 191, 90, 91, 46, 189, 163, 71, 66, 62, 172, 213, 28, 191, 37, 17, 128, 190, 9, 155, 166, 190, 4, 85, 0, 63, 141, 68, 223, 190, 134, 182, 67, 190, 175, 163, 144, 186, 202, 206, 230, 190, 25, 43, 180, 188, 200, 235, 187, 189, 176, 37, 46, 189, 111, 255, 225, 62, 98, 31, 159, 188, 153, 44, 168, 190, 47, 147, 239, 189, 82, 184, 47, 190, 170, 221, 15, 189, 219, 141, 132, 188, 27, 211, 26, 191, 215, 74, 57, 63, 39, 69, 182, 188, 40, 69, 78, 63, 115, 182, 160, 187, 37, 38, 139, 190, 44, 245, 254, 60, 218, 162, 56, 191, 158, 50, 246, 62, 143, 16, 5, 62, 113, 121, 160, 189, 26, 37, 128, 61, 153, 64, 168, 189, 132, 20, 156, 59, 166, 7, 12, 188, 128, 229, 206, 61, 45, 229, 29, 62, 148, 104, 237, 61, 186, 252, 111, 190, 173, 131, 48, 189, 7, 34, 183, 189, 180, 48, 106, 61, 160, 180, 210, 186, 114, 226, 162, 190, 45, 224, 255, 190, 234, 209, 236, 187, 191, 255, 43, 190, 55, 62, 82, 189, 206, 82, 163, 190, 41, 71, 134, 190, 110, 111, 124, 190, 34, 227, 101, 191, 231, 116, 221, 61, 215, 4, 10, 191, 85, 71, 161, 60, 131, 241, 221, 60, 15, 73, 227, 62, 18, 201, 163, 62, 85, 192, 240, 61, 150, 64, 245, 62, 15, 239, 45, 191, 128, 238, 247, 190, 61, 13, 60, 61, 207, 218, 171, 191, 45, 159, 57, 190, 57, 116, 164, 61, 107, 1, 128, 191, 57, 56, 40, 191, 149, 215, 195, 190, 61, 6, 213, 190, 145, 56, 198, 190, 85, 132, 71, 190, 91, 132, 17, 189, 206, 171, 218, 61, 8, 85, 241, 59, 28, 47, 90, 190, 160, 215, 10, 61, 227, 166, 86, 62, 12, 120, 91, 188, 42, 173, 148, 61, 60, 190, 155, 189, 228, 55, 236, 62, 102, 200, 1, 188, 220, 32, 66, 60, 235, 106, 237, 190, 113, 109, 8, 190, 108, 224, 0, 189, 49, 241, 91, 62, 190, 99, 247, 189, 31, 168, 204, 190, 253, 159, 24, 189, 229, 126, 44, 191, 126, 58, 21, 63, 92, 136, 132, 189, 42, 147, 25, 58, 0, 29, 207, 188, 131, 202, 107, 188, 61, 129, 157, 189, 107, 17, 91, 61, 35, 91, 89, 60, 230, 78, 176, 62, 35, 16, 51, 190, 232, 241, 153, 191, 130, 68, 21, 191, 80, 12, 82, 187, 251, 113, 97, 61, 199, 206, 52, 61, 69, 5, 188, 62, 80, 31, 26, 191, 195, 237, 236, 59, 56, 177, 233, 189, 87, 75, 34, 58, 50, 152, 1, 189, 2, 217, 4, 61, 75, 41, 10, 190, 82, 142, 17, 191, 70, 53, 126, 190, 121, 235, 41, 191, 142, 134, 5, 187, 31, 41, 39, 61, 17, 72, 96, 62, 207, 186, 128, 62, 174, 24, 127, 191, 231, 228, 171, 62, 30, 70, 156, 191, 237, 209, 11, 62, 8, 66, 24, 188, 210, 161, 99, 191, 160, 135, 51, 189, 247, 126, 75, 62, 98, 240, 133, 190, 45, 164, 66, 62, 9, 213, 55, 63, 165, 175, 41, 63, 36, 145, 42, 191, 107, 37, 210, 189, 126, 167, 246, 60, 33, 43, 77, 190, 244, 66, 51, 60, 142, 13, 202, 60, 42, 176, 195, 60, 187, 21, 0, 190, 112, 136, 129, 59, 191, 17, 149, 62, 48, 65, 11, 191, 114, 228, 164, 190, 177, 118, 138, 59, 167, 129, 12, 61, 157, 16, 199, 190, 154, 211, 223, 188, 92, 55, 27, 188, 115, 234, 153, 189, 186, 11, 143, 61, 131, 239, 78, 62, 164, 187, 80, 191, 251, 159, 71, 190, 182, 239, 45, 62, 59, 33, 118, 189, 212, 157, 133, 60, 117, 228, 116, 61, 185, 170, 6, 189, 30, 164, 232, 187, 187, 86, 15, 61, 106, 100, 19, 191, 164, 99, 164, 62, 5, 136, 90, 60, 140, 1, 42, 191, 219, 166, 45, 191, 63, 58, 34, 60, 164, 251, 111, 59, 96, 24, 54, 60, 246, 35, 16, 62, 60, 158, 172, 190, 147, 222, 218, 60, 218, 87, 107, 190, 204, 119, 12, 189, 152, 42, 206, 188, 45, 143, 48, 188, 232, 132, 205, 190, 164, 21, 10, 191, 28, 51, 150, 190, 212, 244, 187, 190, 134, 199, 109, 191, 207, 34, 51, 188, 7, 10, 147, 61, 35, 177, 77, 190, 162, 41, 122, 189, 156, 64, 17, 191, 10, 223, 91, 191, 32, 87, 22, 191, 195, 194, 30, 61, 57, 47, 3, 191, 231, 180, 188, 190, 127, 46, 91, 191, 32, 7, 216, 189, 255, 51, 100, 189, 247, 12, 129, 191, 192, 174, 157, 190, 137, 88, 213, 190, 179, 136, 38, 190, 104, 110, 141, 188, 140, 42, 0, 191, 115, 17, 231, 188, 44, 214, 130, 62, 186, 19, 53, 188, 7, 155, 249, 190, 192, 53, 127, 188, 40, 138, 97, 188, 60, 125, 130, 190, 237, 64, 200, 191, 56, 228, 35, 61, 226, 192, 148, 60, 132, 180, 101, 190, 86, 35, 42, 63, 231, 116, 37, 61, 59, 198, 15, 63, 32, 91, 244, 188, 242, 227, 146, 190, 230, 54, 222, 61, 202, 32, 194, 190, 28, 204, 164, 62, 89, 193, 157, 61, 115, 39, 153, 188, 252, 35, 173, 188, 105, 11, 109, 188, 86, 234, 121, 189, 24, 89, 46, 61, 15, 17, 206, 190, 84, 142, 139, 190, 58, 58, 148, 188, 239, 200, 10, 191, 0, 225, 129, 191, 226, 229, 77, 61, 38, 214, 54, 191, 232, 112, 80, 188, 230, 167, 210, 62, 90, 238, 29, 191, 237, 137, 78, 60, 174, 128, 1, 190, 101, 79, 223, 188, 89, 140, 143, 191, 95, 251, 107, 188, 70, 13, 244, 190, 156, 251, 128, 191, 12, 62, 208, 189, 198, 124, 51, 191, 231, 69, 3, 191, 18, 105, 209, 188, 129, 22, 217, 191, 20, 79, 107, 190, 126, 135, 24, 63, 226, 252, 221, 189, 255, 161, 107, 191, 170, 66, 25, 191, 120, 101, 183, 59, 232, 154, 28, 191, 2, 86, 242, 190, 